{
  "version": "1.0",
  "truncation": null,
  "padding": null,
  "added_tokens": [],
  "normalizer": null,
  "pre_tokenizer": {
    "type": "Metaspace",
    "replacement": "▁",
    "prepend_scheme": "never",
    "split": true
  },
  "post_processor": null,
  "decoder": {
    "type": "Sequence",
    "decoders": [
      {
        "type": "ByteFallback"
      },
      {
        "type": "Metaspace",
        "replacement": "▁",
        "prepend_scheme": "never",
        "split": true
      }
    ]
  },
  "model": {
    "type": "BPE",
    "dropout": null,
    "unk_token": "[UNK]",
    "continuing_subword_prefix": null,
    "end_of_word_suffix": null,
    "fuse_unk": false,
    "byte_fallback": true,
    "ignore_merges": false,
    "vocab": {
      "[UNK]": 0,
      "\n": 1,
      "!": 2,
      "\"": 3,
      "#": 4,
      "$": 5,
      "%": 6,
      "&": 7,
      "'": 8,
      "(": 9,
      ")": 10,
      "*": 11,
      "+": 12,
      ",": 13,
      "-": 14,
      ".": 15,
      "/": 16,
      "0": 17,
      "1": 18,
      "2": 19,
      "3": 20,
      "4": 21,
      "5": 22,
      "6": 23,
      "7": 24,
      "8": 25,
      "9": 26,
      ":": 27,
      ";": 28,
      "<": 29,
      "=": 30,
      ">": 31,
      "?": 32,
      "A": 33,
      "B": 34,
      "C": 35,
      "D": 36,
      "E": 37,
      "F": 38,
      "G": 39,
      "H": 40,
      "I": 41,
      "J": 42,
      "K": 43,
      "L": 44,
      "M": 45,
      "N": 46,
      "O": 47,
      "P": 48,
      "Q": 49,
      "R": 50,
      "S": 51,
      "T": 52,
      "U": 53,
      "V": 54,
      "W": 55,
      "X": 56,
      "Y": 57,
      "Z": 58,
      "[": 59,
      "\\": 60,
      "]": 61,
      "^": 62,
      "_": 63,
      "`": 64,
      "a": 65,
      "b": 66,
      "c": 67,
      "d": 68,
      "e": 69,
      "f": 70,
      "g": 71,
      "h": 72,
      "i": 73,
      "j": 74,
      "k": 75,
      "l": 76,
      "m": 77,
      "n": 78,
      "o": 79,
      "p": 80,
      "q": 81,
      "r": 82,
      "s": 83,
      "t": 84,
      "u": 85,
      "v": 86,
      "w": 87,
      "x": 88,
      "y": 89,
      "z": 90,
      "{": 91,
      "|": 92,
      "}": 93,
      "~": 94,
      "°": 95,
      "·": 96,
      "Ö": 97,
      "á": 98,
      "â": 99,
      "æ": 100,
      "ç": 101,
      "è": 102,
      "é": 103,
      "í": 104,
      "ñ": 105,
      "ö": 106,
      "ü": 107,
      "ā": 108,
      "ī": 109,
      "İ": 110,
      "ņ": 111,
      "Ś": 112,
      "ś": 113,
      "ū": 114,
      "ș": 115,
      "ə": 116,
      "ɦ": 117,
      "ɪ": 118,
      "ɾ": 119,
      "ʊ": 120,
      "ʱ": 121,
      "ʼ": 122,
      "ˈ": 123,
      "ː": 124,
      "ί": 125,
      "α": 126,
      "δ": 127,
      "θ": 128,
      "ν": 129,
      "π": 130,
      "ς": 131,
      "ό": 132,
      "ँ": 133,
      "ं": 134,
      "ः": 135,
      "अ": 136,
      "आ": 137,
      "इ": 138,
      "ई": 139,
      "उ": 140,
      "ऊ": 141,
      "ऋ": 142,
      "ऍ": 143,
      "ए": 144,
      "ऐ": 145,
      "ऑ": 146,
      "ओ": 147,
      "औ": 148,
      "क": 149,
      "ख": 150,
      "ग": 151,
      "घ": 152,
      "ङ": 153,
      "च": 154,
      "छ": 155,
      "ज": 156,
      "झ": 157,
      "ञ": 158,
      "ट": 159,
      "ठ": 160,
      "ड": 161,
      "ढ": 162,
      "ण": 163,
      "त": 164,
      "थ": 165,
      "द": 166,
      "ध": 167,
      "न": 168,
      "प": 169,
      "फ": 170,
      "ब": 171,
      "भ": 172,
      "म": 173,
      "य": 174,
      "र": 175,
      "ल": 176,
      "ळ": 177,
      "व": 178,
      "श": 179,
      "ष": 180,
      "स": 181,
      "ह": 182,
      "़": 183,
      "ा": 184,
      "ि": 185,
      "ी": 186,
      "ु": 187,
      "ू": 188,
      "ृ": 189,
      "े": 190,
      "ै": 191,
      "ॉ": 192,
      "ॊ": 193,
      "ो": 194,
      "ौ": 195,
      "्": 196,
      "।": 197,
      "०": 198,
      "१": 199,
      "२": 200,
      "३": 201,
      "४": 202,
      "५": 203,
      "६": 204,
      "७": 205,
      "८": 206,
      "९": 207,
      "॰": 208,
      "ం": 209,
      "ః": 210,
      "అ": 211,
      "ఆ": 212,
      "ఇ": 213,
      "ఈ": 214,
      "ఉ": 215,
      "ఋ": 216,
      "ఎ": 217,
      "ఏ": 218,
      "ఐ": 219,
      "ఒ": 220,
      "ఓ": 221,
      "ఔ": 222,
      "క": 223,
      "ఖ": 224,
      "గ": 225,
      "ఘ": 226,
      "చ": 227,
      "ఛ": 228,
      "జ": 229,
      "ఞ": 230,
      "ట": 231,
      "ఠ": 232,
      "డ": 233,
      "ఢ": 234,
      "ణ": 235,
      "త": 236,
      "థ": 237,
      "ద": 238,
      "ధ": 239,
      "న": 240,
      "ప": 241,
      "ఫ": 242,
      "బ": 243,
      "భ": 244,
      "మ": 245,
      "య": 246,
      "ర": 247,
      "ల": 248,
      "ళ": 249,
      "వ": 250,
      "శ": 251,
      "ష": 252,
      "స": 253,
      "హ": 254,
      "ా": 255,
      "ి": 256,
      "ీ": 257,
      "ు": 258,
      "ూ": 259,
      "ృ": 260,
      "ె": 261,
      "ే": 262,
      "ై": 263,
      "ొ": 264,
      "ో": 265,
      "ౌ": 266,
      "్": 267,
      "ಂ": 268,
      "ಅ": 269,
      "ಆ": 270,
      "ಇ": 271,
      "ಈ": 272,
      "ಉ": 273,
      "ಋ": 274,
      "ಎ": 275,
      "ಏ": 276,
      "ಐ": 277,
      "ಒ": 278,
      "ಓ": 279,
      "ಕ": 280,
      "ಖ": 281,
      "ಗ": 282,
      "ಘ": 283,
      "ಚ": 284,
      "ಛ": 285,
      "ಜ": 286,
      "ಝ": 287,
      "ಞ": 288,
      "ಟ": 289,
      "ಠ": 290,
      "ಡ": 291,
      "ಢ": 292,
      "ಣ": 293,
      "ತ": 294,
      "ಥ": 295,
      "ದ": 296,
      "ಧ": 297,
      "ನ": 298,
      "ಪ": 299,
      "ಫ": 300,
      "ಬ": 301,
      "ಭ": 302,
      "ಮ": 303,
      "ಯ": 304,
      "ರ": 305,
      "ಲ": 306,
      "ಳ": 307,
      "ವ": 308,
      "ಶ": 309,
      "ಷ": 310,
      "ಸ": 311,
      "ಹ": 312,
      "಼": 313,
      "ಾ": 314,
      "ಿ": 315,
      "ೀ": 316,
      "ು": 317,
      "ೂ": 318,
      "ೃ": 319,
      "ೆ": 320,
      "ೇ": 321,
      "ೈ": 322,
      "ೊ": 323,
      "ೋ": 324,
      "ೌ": 325,
      "್": 326,
      "೦": 327,
      "೧": 328,
      "೨": 329,
      "೩": 330,
      "೪": 331,
      "೫": 332,
      "೬": 333,
      "೭": 334,
      "೮": 335,
      "೯": 336,
      "ṅ": 337,
      "ṇ": 338,
      "Ṛ": 339,
      "ṣ": 340,
      "ṭ": 341,
      "Ἰ": 342,
      " ": 343,
      " ": 344,
      "‌": 345,
      "‍": 346,
      "‎": 347,
      "–": 348,
      "—": 349,
      "‘": 350,
      "’": 351,
      "“": 352,
      "”": 353,
      "†": 354,
      "‡": 355,
      "•": 356,
      "′": 357,
      "″": 358,
      "‹": 359,
      "›": 360,
      "⁡": 361,
      "₹": 362,
      "↑": 363,
      "−": 364,
      "ⓘ": 365,
      "▁": 366,
      "▪": 367,
      "﻿": 368,
      "ht": 369,
      "di": 370,
      "dia": 371,
      "re": 372,
      "or": 373,
      "st": 374,
      "ge": 375,
      "tp": 376,
      ":/": 377,
      "http": 378,
      "://": 379,
      "pe": 380,
      "](": 381,
      "](http": 382,
      "s://": 383,
      "](https://": 384,
      "g/": 385,
      "wi": 386,
      "ki": 387,
      "age": 388,
      ".or": 389,
      ".org/": 390,
      "wiki": 391,
      "ap": 392,
      "st_": 393,
      "pedia": 394,
      ".wiki": 395,
      "htm": 396,
      "html": 397,
      "/p": 398,
      "api": 399,
      "age/": 400,
      "/re": 401,
      "pedia.org/": 402,
      ".wikipedia.org/": 403,
      "html/": 404,
      "/page/": 405,
      "v1": 406,
      "st_v1": 407,
      "api/re": 408,
      "api/rest_v1": 409,
      ".wikipedia.org/api/rest_v1": 410,
      "/page/html/": 411,
      ".wikipedia.org/api/rest_v1/page/html/": 412,
      "▁[": 413,
      "te": 414,
      "▁\"": 415,
      "en": 416,
      "\")": 417,
      "in": 418,
      "an": 419,
      "on": 420,
      "In": 421,
      "ti": 422,
      "th": 423,
      "▁|": 424,
      "](https://en": 425,
      "al": 426,
      "](https://en.wikipedia.org/api/rest_v1/page/html/": 427,
      "20": 428,
      "India": 429,
      "hi": 430,
      "er": 431,
      "ar": 432,
      "ci": 433,
      "of": 434,
      "ार": 435,
      "tion": 436,
      "](https://hi": 437,
      "](https://hi.wikipedia.org/api/rest_v1/page/html/": 438,
      "▁क": 439,
      "es": 440,
      "the": 441,
      "्र": 442,
      "om": 443,
      "▁-": 444,
      "te_": 445,
      "▁(": 446,
      "and": 447,
      "ri": 448,
      "్ర": 449,
      "#ci": 450,
      "#cite_": 451,
      "▁of": 452,
      "ou": 453,
      "भार": 454,
      "भारत": 455,
      "](https://te": 456,
      "](https://te.wikipedia.org/api/rest_v1/page/html/": 457,
      "▁the": 458,
      "201": 459,
      "▁स": 460,
      "ార": 461,
      "le": 462,
      "](https://en.wikipedia.org/api/rest_v1/page/html/India": 463,
      "19": 464,
      "si": 465,
      "▁India": 466,
      "**": 467,
      "no": 468,
      "ve": 469,
      "li": 470,
      "ation": 471,
      "oo": 472,
      "OT": 473,
      "ate": 474,
      "ac": 475,
      "▁in": 476,
      "▁म": 477,
      "as": 478,
      "्य": 479,
      "am": 480,
      "\\_": 481,
      "ent": 482,
      "at": 483,
      "200": 484,
      "kn": 485,
      "](https://kn": 486,
      "](https://kn.wikipedia.org/api/rest_v1/page/html/": 487,
      "▁and": 488,
      "-0": 489,
      "](https://en.wikipedia.org/api/rest_v1/page/html/India#cite_": 490,
      "ాల": 491,
      "▁p": 492,
      "ಾರ": 493,
      "▁C": 494,
      "-1": 495,
      "रा": 496,
      "್ರ": 497,
      "▁c": 498,
      "▁प": 499,
      "్య": 500,
      "ref": 501,
      "▁A": 502,
      "id": 503,
      "note": 504,
      ").": 505,
      "et": 506,
      "is": 507,
      "భార": 508,
      "భారత": 509,
      "ic": 510,
      "దే": 511,
      "[[": 512,
      "ing": 513,
      "ad": 514,
      "దేశ": 515,
      "స్": 516,
      "▁s": 517,
      "▁S": 518,
      "we": 519,
      "ें": 520,
      "▁|\n": 521,
      "▁f": 522,
      "ान": 523,
      "ook": 524,
      "ref-": 525,
      "note-": 526,
      "▁ప": 527,
      "ed": 528,
      "▁1": 529,
      "lo": 530,
      "र्": 531,
      "▁b": 532,
      "▁के": 533,
      "lin": 534,
      "red": 535,
      "ww": 536,
      "](https://hi.wikipedia.org/api/rest_v1/page/html/भारत": 537,
      "\"),": 538,
      "సా": 539,
      "▁t": 540,
      "edi": 541,
      "um": 542,
      ".\n": 543,
      "▁ह": 544,
      "ర్": 545,
      "ಭಾರ": 546,
      "ಭಾರತ": 547,
      "78": 548,
      "he": 549,
      "्त": 550,
      "it": 551,
      "ro": 552,
      "న్": 553,
      "00": 554,
      "fi": 555,
      "▁P": 556,
      "್ಯ": 557,
      "com": 558,
      "ul": 559,
      "=1": 560,
      "▁m": 561,
      "of_": 562,
      "us": 563,
      "▁201": 564,
      "link": 565,
      "ang": 566,
      "action": 567,
      "edit": 568,
      "action=": 569,
      "ver": 570,
      "▁[↑": 571,
      "action=edit": 572,
      "&red": 573,
      "?action=edit": 574,
      "link=1": 575,
      "&redlink=1": 576,
      "?action=edit&redlink=1": 577,
      "21": 578,
      "ra": 579,
      "IS": 580,
      "ory": 581,
      "FO": 582,
      "▁**": 583,
      "या": 584,
      "NOT": 585,
      "OTNOT": 586,
      "FOOTNOT": 587,
      "FOOTNOTE": 588,
      "rc": 589,
      "िक": 590,
      "ist": 591,
      "un": 592,
      "▁a": 593,
      "ce": 594,
      "978": 595,
      "BN": 596,
      "▁में": 597,
      "ISBN": 598,
      "లు": 599,
      "ीय": 600,
      "ch": 601,
      "రా": 602,
      "▁अ": 603,
      "▁T": 604,
      "▁R": 605,
      "್ತ": 606,
      "web": 607,
      "ur": 608,
      "▁M": 609,
      "\")\n": 610,
      "cial": 611,
      "de": 612,
      "భారతదేశ": 613,
      "enti": 614,
      "]](https://en.wikipedia.org/api/rest_v1/page/html/India#cite_": 615,
      "_of_": 616,
      "▁2": 617,
      "Sou": 618,
      "india": 619,
      ".శ": 620,
      ".శ.": 621,
      "లో": 622,
      "](https://en.wikipedia.org/api/rest_v1/page/html/India#cite_ref-": 623,
      "]](https://en.wikipedia.org/api/rest_v1/page/html/India#cite_note-": 624,
      "ों": 625,
      "సా.శ.": 626,
      "ol": 627,
      "ರ್": 628,
      "identi": 629,
      "ಲಿ": 630,
      ")\n": 631,
      ".g": 632,
      "fier": 633,
      "identifier": 634,
      "▁క": 635,
      "वि": 636,
      "ter": 637,
      "em": 638,
      "ni": 639,
      "ना": 640,
      "▁ಸ": 641,
      "hive": 642,
      "identifier)": 643,
      "▁ज": 644,
      "▁w": 645,
      "▁to": 646,
      "्ष": 647,
      "il": 648,
      "-0)": 649,
      "book": 650,
      "ss": 651,
      "త్ర": 652,
      "sh": 653,
      "▁ಮ": 654,
      "▁D": 655,
      "ाल": 656,
      "oun": 657,
      "),": 658,
      "ాలు": 659,
      "_क": 660,
      "▁है": 661,
      "cal": 662,
      "రి": 663,
      "ment": 664,
      "క్": 665,
      "▁B": 666,
      "▁द": 667,
      "ంద": 668,
      "23": 669,
      "](https://hi.wikipedia.org/api/rest_v1/page/html/भारत#cite_": 670,
      "pg": 671,
      "50": 672,
      ".j": 673,
      "ని": 674,
      "▁వ": 675,
      "▁19": 676,
      "es/": 677,
      "10": 678,
      "त्र": 679,
      "angu": 680,
      "_(": 681,
      ".com": 682,
      "राज": 683,
      "s/": 684,
      "anguage": 685,
      "ेश": 686,
      "न्": 687,
      "ಂದ": 688,
      "िया": 689,
      "me": 690,
      "▁e": 691,
      "▁•": 692,
      "books": 693,
      "·**": 694,
      "▁**·**": 695,
      "▁ಪ": 696,
      "IT": 697,
      "ig": 698,
      "▁*": 699,
      "du": 700,
      "ir": 701,
      "ty": 702,
      ".com/": 703,
      "ಗಳ": 704,
      "ల్": 705,
      ".in": 706,
      "▁--": 707,
      "ay": 708,
      "और": 709,
      "ct": 710,
      "www": 711,
      "ld": 712,
      "భారతదేశం": 713,
      "ER": 714,
      "▁ब": 715,
      "\").": 716,
      "EF": 717,
      "ITER": 718,
      "ंग": 719,
      "con": 720,
      "ITEREF": 721,
      "ly": 722,
      "24": 723,
      "ంగ": 724,
      "▁भारत": 725,
      "▁की": 726,
      "▁l": 727,
      "www.": 728,
      "26": 729,
      "ational": 730,
      "▁స": 731,
      "Spe": 732,
      "Uni": 733,
      "ateg": 734,
      "▁प्र": 735,
      "ला": 736,
      "▁त": 737,
      "भा": 738,
      "्व": 739,
      "ategory": 740,
      "▁E": 741,
      "▁[↑](https://en.wikipedia.org/api/rest_v1/page/html/India#cite_ref-": 742,
      "▁न": 743,
      "op": 744,
      "▁G": 745,
      "▁మ": 746,
      "▁से": 747,
      "ategory:": 748,
      "ast": 749,
      "ನ್": 750,
      "▁---": 751,
      "tic": 752,
      "ರಾ": 753,
      "ಲ್": 754,
      "▁और": 755,
      "arc": 756,
      "Special": 757,
      "ount": 758,
      "్రా": 759,
      "ber": 760,
      "up": 761,
      "11": 762,
      "▁N": 763,
      "Special:": 764,
      "22": 765,
      "_in": 766,
      "▁का": 767,
      "ತ್ತ": 768,
      "ಭಾರತದ": 769,
      "_India": 770,
      "_स": 771,
      "ీయ": 772,
      "rom": 773,
      "▁20": 774,
      "30": 775,
      "ry": 776,
      "▁h": 777,
      "▁India\")": 778,
      "▁H": 779,
      "28": 780,
      "ew": 781,
      "#C": 782,
      "ండ": 783,
      "्रे": 784,
      "ता": 785,
      "ಸ್": 786,
      "#CITEREF": 787,
      "##": 788,
      "rces/": 789,
      "ary": 790,
      "्ट": 791,
      "Book": 792,
      "▁on": 793,
      "-4": 794,
      "ov": 795,
      "Sources/": 796,
      "Special:Book": 797,
      "Special:BookSources/": 798,
      "archive": 799,
      "978-0": 800,
      "im": 801,
      "ng": 802,
      "▁re": 803,
      "▁.": 804,
      "▁200": 805,
      "జ్య": 806,
      "▁చ": 807,
      "sia": 808,
      "_S": 809,
      "18": 810,
      "-3": 811,
      "తా": 812,
      "se": 813,
      "▁[\"": 814,
      "▁\"भारत": 815,
      "ము": 816,
      "▁F": 817,
      "నా": 818,
      "▁J": 819,
      "తి": 820,
      "్ట": 821,
      "ab": 822,
      "-8": 823,
      "स्त": 824,
      ".gov": 825,
      "▁व": 826,
      "orld": 827,
      "राज्य": 828,
      "▁or": 829,
      "▁./": 830,
      "ress": 831,
      "25": 832,
      "ion": 833,
      "क्ष": 834,
      "archive.org/": 835,
      "per": 836,
      "The": 837,
      "ित": 838,
      "rit": 839,
      "సి": 840,
      "mp": 841,
      "త్": 842,
      "▁by": 843,
      "▁n": 844,
      "eve": 845,
      "ak": 846,
      "ub": 847,
      "199": 848,
      "न्द": 849,
      ".[[": 850,
      "ain": 851,
      "el": 852,
      "calf": 853,
      ".jpg": 854,
      "15": 855,
      "▁In": 856,
      "for": 857,
      "etcalf": 858,
      "err": 859,
      "web.": 860,
      "](https://web.": 861,
      "_A": 862,
      "/http": 863,
      "web/": 864,
      "archive.org/web/": 865,
      "](https://web.archive.org/web/": 866,
      ".in/": 867,
      "13": 868,
      "▁आ": 869,
      "](https://en.wikipedia.org/api/rest_v1/page/html/India#CITEREF": 870,
      "▁ಹ": 871,
      "▁from": 872,
      "mon": 873,
      "षा": 874,
      "पु": 875,
      "್ಟ": 876,
      "ಲ್ಲಿ": 877,
      "error": 878,
      "nd": 879,
      "ens": 880,
      "ति": 881,
      "▁th": 882,
      "978-0-": 883,
      "▁(సా.శ.": 884,
      "_and": 885,
      "ास": 886,
      "ಕ್": 887,
      "_of_India": 888,
      "యా": 889,
      "inal": 890,
      "ులు": 891,
      "▁రా": 892,
      "16": 893,
      "ಾನ": 894,
      "▁ಕ": 895,
      "▁d": 896,
      "▁([": 897,
      "▁g": 898,
      "ha": 899,
      "–సా.శ.": 900,
      "14": 901,
      "▁అ": 902,
      "29": 903,
      "ore": 904,
      "ి.": 905,
      "with": 906,
      "17": 907,
      "▁ವ": 908,
      "Har": 909,
      "ort": 910,
      "ep": 911,
      "▁(identifier)": 912,
      "_(identifier)": 913,
      "▁(identifier)\")": 914,
      "Li": 915,
      "_P": 916,
      "]](https://en.wikipedia.org/api/rest_v1/page/html/India#cite_note-FOOTNOTE": 917,
      "▁ನ": 918,
      "s](https://en.wikipedia.org/api/rest_v1/page/html/": 919,
      "ted": 920,
      "स्": 921,
      "▁ప్ర": 922,
      "umb": 923,
      "ana": 924,
      "ిక": 925,
      "versi": 926,
      "vi": 927,
      "fn": 928,
      "ಂತ": 929,
      "ರಿ": 930,
      "ure": 931,
      "_C": 932,
      "conom": 933,
      "తం": 934,
      "40": 935,
      "ತ್ತು": 936,
      "▁O": 937,
      "▁is": 938,
      "▁p.": 939,
      "▁\"C": 940,
      "भाषा": 941,
      "la": 942,
      "Metcalf": 943,
      "ಗಳು": 944,
      "ensus": 945,
      "](http://": 946,
      "▁[A": 947,
      "ిన": 948,
      "జ్యం": 949,
      "मा": 950,
      "▁को": 951,
      "gle": 952,
      "था": 953,
      "]](https://hi.wikipedia.org/api/rest_v1/page/html/भारत#cite_": 954,
      "णी": 955,
      "over": 956,
      "री": 957,
      "జా": 958,
      "▁[S": 959,
      "ut": 960,
      "27": 961,
      "ची": 962,
      ".p": 963,
      "देश": 964,
      "AA": 965,
      "late": 966,
      "ంచ": 967,
      "కు": 968,
      "versity": 969,
      "ot": 970,
      "▁ग": 971,
      "](https://te.wikipedia.org/api/rest_v1/page/html/భారతదేశం": 972,
      "ड़": 973,
      "ದೇ": 974,
      "▁ಅ": 975,
      "▁ಬ": 976,
      "▁\"L": 977,
      "har": 978,
      "▁Indian": 979,
      "*.": 980,
      "oogle": 981,
      "▁for": 982,
      "▁पर": 983,
      "▁उ": 984,
      "ను": 985,
      "పూ": 986,
      "](https://kn.wikipedia.org/api/rest_v1/page/html/ಭಾರತ": 987,
      "ದೇಶ": 988,
      "arge": 989,
      "id=": 990,
      "▁be": 991,
      "▁ए": 992,
      "ries": 993,
      "▁W": 994,
      "ष्ट": 995,
      "ाद": 996,
      "sion": 997,
      "▁है।": 998,
      "ther": 999,
      "భా": 1000,
      "s,": 1001,
      "'s": 1002,
      "978-1": 1003,
      "do": 1004,
      "px": 1005,
      "?id=": 1006,
      "opul": 1007,
      "s\")": 1008,
      "media": 1009,
      ".org/wiki": 1010,
      ".google": 1011,
      "books.google": 1012,
      ".com/books": 1013,
      "books.google.com/books": 1014,
      "▁[ISBN": 1015,
      "books.google.com/books?id=": 1016,
      "ప్ర": 1017,
      "▁श": 1018,
      "_के": 1019,
      "ತಿ": 1020,
      "ರು": 1021,
      "ద్": 1022,
      "ింద": 1023,
      "▁3": 1024,
      "-9": 1025,
      "▁\"ISBN": 1026,
      "ISBN_(identifier)": 1027,
      "_in_India": 1028,
      "47": 1029,
      "▁[C": 1030,
      "▁language": 1031,
      "ಸಂ": 1032,
      "▁ఉ": 1033,
      "▁[म": 1034,
      "्रेणी": 1035,
      "_म": 1036,
      "▁K": 1037,
      "ం:": 1038,
      "श्रेणी": 1039,
      "ष्ट्र": 1040,
      "gen": 1041,
      "ance": 1042,
      "▁[*": 1043,
      "ಷ್ಟ": 1044,
      "ಾಗ": 1045,
      "ountries": 1046,
      "load": 1047,
      "iginal": 1048,
      "का": 1049,
      "▁सं": 1050,
      "विश": 1051,
      "श्रेणी:": 1052,
      "▁L": 1053,
      "-2": 1054,
      "upload": 1055,
      ")[[": 1056,
      "▁ఆ": 1057,
      "▁The": 1058,
      "Harv": 1059,
      "opulation": 1060,
      "](https://books.google.com/books?id=": 1061,
      "South": 1062,
      "%20": 1063,
      "ले": 1064,
      ".wikimedia": 1065,
      ".wikimedia.org/wiki": 1066,
      "▁Uni": 1067,
      "ने": 1068,
      "![": 1069,
      "hin": 1070,
      "▁de": 1071,
      "gion": 1072,
      "pedia/": 1073,
      "upload.wikimedia.org/wiki": 1074,
      "upload.wikimedia.org/wikipedia/": 1075,
      "▁original": 1076,
      "](https://upload.wikimedia.org/wikipedia/": 1077,
      "ेत्र": 1078,
      "](https://hi.wikipedia.org/api/rest_v1/page/html/भारत#cite_ref-": 1079,
      "]](https://hi.wikipedia.org/api/rest_v1/page/html/भारत#cite_note-": 1080,
      "a_": 1081,
      "common": 1082,
      "a](https://en.wikipedia.org/api/rest_v1/page/html/": 1083,
      "\"))": 1084,
      "ಿಕ": 1085,
      "](https://kn.wikipedia.org/api/rest_v1/page/html/ಭಾರತ#cite_": 1086,
      "▁\"S": 1087,
      "▁ర": 1088,
      "7.": 1089,
      "etri": 1090,
      "Category:": 1091,
      "प्र": 1092,
      "म्": 1093,
      "▁\"M": 1094,
      "िल": 1095,
      "thumb": 1096,
      "ow": 1097,
      "6.": 1098,
      "_D": 1099,
      "](https://web.archive.org/web/201": 1100,
      "మా": 1101,
      "▁సా": 1102,
      "భారతీయ": 1103,
      "log": 1104,
      "thumb/": 1105,
      "35": 1106,
      "ction": 1107,
      "aj": 1108,
      "eved": 1109,
      "p.": 1110,
      "వా": 1111,
      "2011": 1112,
      "▁Retri": 1113,
      "▁Retrieved": 1114,
      "ru": 1115,
      "px-": 1116,
      "రు": 1117,
      "ಂಗ": 1118,
      "ಂಡ": 1119,
      "ಿಂದ": 1120,
      "_के_": 1121,
      "und": 1122,
      "commons/": 1123,
      "▁इ": 1124,
      "](https://upload.wikimedia.org/wikipedia/commons/": 1125,
      "ult": 1126,
      "nic": 1127,
      "्या": 1128,
      "est": 1129,
      "▁st": 1130,
      "av": 1131,
      "िय": 1132,
      "వి": 1133,
      "ష్ట": 1134,
      "ార్": 1135,
      "పూ.": 1136,
      "umm": 1137,
      "1.": 1138,
      "ಸಿ": 1139,
      "್ರಾ": 1140,
      "](https://upload.wikimedia.org/wikipedia/commons/thumb/": 1141,
      "2.": 1142,
      "▁con": 1143,
      "▁pp.": 1144,
      "▁Category:": 1145,
      "▁[↑](https://en.wikipedia.org/api/rest_v1/page/html/India#cite_ref-FOOTNOTE": 1146,
      "క్ష": 1147,
      "हि": 1148,
      "ी](https://hi.wikipedia.org/api/rest_v1/page/html/": 1149,
      "70": 1150,
      "▁as": 1151,
      "ज़": 1152,
      "eral": 1153,
      "స్థ": 1154,
      "రిత్ర": 1155,
      "PA": 1156,
      "▁[M": 1157,
      "rchive": 1158,
      "36": 1159,
      "_b": 1160,
      "ma": 1161,
      "ong": 1162,
      "सं": 1163,
      "सा": 1164,
      "rchived": 1165,
      "temp": 1166,
      "cy": 1167,
      "india.gov": 1168,
      "ud": 1169,
      "ಷ್ಟ್ರ": 1170,
      "od": 1171,
      "_M": 1172,
      "న్న": 1173,
      "-7": 1174,
      "त्त": 1175,
      "▁र": 1176,
      "gh": 1177,
      "-5": 1178,
      "60": 1179,
      "oli": 1180,
      "ans": 1181,
      "ff": 1182,
      "ಜ್ಯ": 1183,
      "್ಯಾ": 1184,
      "ern": 1185,
      "DP": 1186,
      "▁\"Special:BookSources/": 1187,
      "](https://en.wikipedia.org/api/rest_v1/page/html/Special:BookSources/": 1188,
      "](https://en.wikipedia.org/api/rest_v1/page/html/ISBN_(identifier)": 1189,
      "▁[ISBN](https://en.wikipedia.org/api/rest_v1/page/html/ISBN_(identifier)": 1190,
      "art": 1191,
      "gr": 1192,
      "st_of_": 1193,
      "▁[B": 1194,
      "38": 1195,
      "stan": 1196,
      "language": 1197,
      "_T": 1198,
      "national": 1199,
      "▁\"B": 1200,
      "our": 1201,
      "4.": 1202,
      "tein": 1203,
      "ದೆ": 1204,
      "್ವ": 1205,
      "▁ಮತ್ತು": 1206,
      "Indian": 1207,
      "%2": 1208,
      "र्व": 1209,
      "&pg": 1210,
      "&pg=": 1211,
      "les": 1212,
      "ंड": 1213,
      "](https://te.wikipedia.org/api/rest_v1/page/html/భారతదేశం#cite_": 1214,
      "List_of_": 1215,
      "▁\"List": 1216,
      "ange": 1217,
      "▁\"P": 1218,
      "▁ಪ್ರ": 1219,
      "▁with": 1220,
      "39": 1221,
      "గా": 1222,
      "िस": 1223,
      "_p": 1224,
      "▁I": 1225,
      "राष्ट्र": 1226,
      "overn": 1227,
      "ంట": 1228,
      "కి": 1229,
      "ata": 1230,
      "▁no": 1231,
      "ity": 1232,
      "ಜನ": 1233,
      "ೆಯ": 1234,
      "ರಾಷ್ಟ್ರ": 1235,
      ".jp": 1236,
      "ution": 1237,
      "_N": 1238,
      "indu": 1239,
      "▁ल": 1240,
      "/https://": 1241,
      "మ్రా": 1242,
      "ష్ట్ర": 1243,
      "▁\"A": 1244,
      "land": 1245,
      "ank": 1246,
      "▁*[": 1247,
      "](https://en.wikipedia.org/api/rest_v1/page/html/C": 1248,
      "45": 1249,
      "ంత": 1250,
      "▁सा": 1251,
      "्षेत्र": 1252,
      "&pg=PA": 1253,
      "▁Press": 1254,
      "emp": 1255,
      "ೀಯ": 1256,
      "ನ್ನ": 1257,
      "8.": 1258,
      "stit": 1259,
      "चि": 1260,
      ".jpg)": 1261,
      "ations": 1262,
      "PP": 1263,
      "9.": 1264,
      "90": 1265,
      "मन": 1266,
      "ी_": 1267,
      "▁राज्य": 1268,
      "-10": 1269,
      "పు": 1270,
      "▁\"G": 1271,
      "](https://www.": 1272,
      "▁&": 1273,
      "पा": 1274,
      "श्रेणी:Harv": 1275,
      "80": 1276,
      "artic": 1277,
      "ಖ್ಯ": 1278,
      "▁ಆ": 1279,
      ".jpg/": 1280,
      "▁న": 1281,
      "▁Asia": 1282,
      "जा": 1283,
      "▁\"म": 1284,
      "_G": 1285,
      "▁di": 1286,
      "▁भाषा": 1287,
      "-6": 1288,
      "మి": 1289,
      "ాన": 1290,
      "2006": 1291,
      "all": 1292,
      "3.": 1293,
      "▁हैं": 1294,
      "ummit": 1295,
      "lop": 1296,
      "ates": 1297,
      "ubli": 1298,
      "ef": 1299,
      "a\")": 1300,
      "▁य": 1301,
      "▁वि": 1302,
      "overnment": 1303,
      "పా": 1304,
      "▁ఇ": 1305,
      "▁త": 1306,
      "▁2011": 1307,
      "ರ್ಮ": 1308,
      "భాష": 1309,
      "77": 1310,
      "to": 1311,
      "ai": 1312,
      "](https://en.wikipedia.org/api/rest_v1/page/html/M": 1313,
      "inist": 1314,
      "▁4": 1315,
      "▁भ": 1316,
      "dge": 1317,
      "omm": 1318,
      "▁error": 1319,
      "ke": 1320,
      "2018": 1321,
      "](https://en.wikipedia.org/api/rest_v1/page/html/S": 1322,
      "ori": 1323,
      "▁University": 1324,
      "ूची": 1325,
      "▁\"T": 1326,
      "os": 1327,
      "▁[G": 1328,
      "ear": 1329,
      "పాల": 1330,
      "లీ": 1331,
      "ust": 1332,
      "ಸ್ತ": 1333,
      "ral": 1334,
      "गर": 1335,
      "▁are": 1336,
      "*](https://books.google.com/books?id=": 1337,
      "s.": 1338,
      "▁was": 1339,
      "▁దేశ": 1340,
      "స్తా": 1341,
      "ence": 1342,
      "errors": 1343,
      "sher": 1344,
      "▁[P": 1345,
      "_and_": 1346,
      "▁[↑](https://hi.wikipedia.org/api/rest_v1/page/html/भारत#cite_ref-": 1347,
      "arget": 1348,
      "5.": 1349,
      "df": 1350,
      "48": 1351,
      "వర్": 1352,
      "ాయ": 1353,
      "istory": 1354,
      "CS": 1355,
      "ಭಾ": 1356,
      "ಿತ": 1357,
      "ेला": 1358,
      "ue": 1359,
      "\").\n": 1360,
      "/http://": 1361,
      "▁an": 1362,
      "ountry": 1363,
      "हा": 1364,
      "ism": 1365,
      "](https://en.wikipedia.org/api/rest_v1/page/html/B": 1366,
      "ta": 1367,
      "ard": 1368,
      "మ్రాజ్యం": 1369,
      "12": 1370,
      "ಿಯ": 1371,
      "ಸ್ಥ": 1372,
      "▁\"E": 1373,
      "कार": 1374,
      "पर": 1375,
      "▁कर": 1376,
      "ंग्रे": 1377,
      "](https://en.wikipedia.org/api/rest_v1/page/html/P": 1378,
      "▁\"D": 1379,
      "_s": 1380,
      "33": 1381,
      "▁ex": 1382,
      "National": 1383,
      "దేశ్": 1384,
      "क्त": 1385,
      "िर": 1386,
      "ोल": 1387,
      "_R": 1388,
      "ani": 1389,
      "sian": 1390,
      "Stein": 1391,
      "कि": 1392,
      "मी": 1393,
      "son": 1394,
      "ం](https://te.wikipedia.org/api/rest_v1/page/html/": 1395,
      "ll": 1396,
      "%2C": 1397,
      "ame": 1398,
      "outh": 1399,
      "ನೇ": 1400,
      "▁ಇ": 1401,
      "್ರಿ": 1402,
      "000": 1403,
      "mber": 1404,
      "हिन्द": 1405,
      "ంబ": 1406,
      "టి": 1407,
      "conomy": 1408,
      "new": 1409,
      "amb": 1410,
      "other": 1411,
      "ंध": 1412,
      "ेष": 1413,
      "](https://hi.wikipedia.org/api/rest_v1/page/html/म": 1414,
      ").\n": 1415,
      "ile": 1416,
      "s-": 1417,
      "ec": 1418,
      "ी\")": 1419,
      "ంలో": 1420,
      "ाना": 1421,
      "▁अन": 1422,
      "స్తాన్": 1423,
      "indi": 1424,
      "ನಾ": 1425,
      "ವಿ": 1426,
      "▁ಭಾರತದ": 1427,
      "ari": 1428,
      "india-": 1429,
      "▁ಸಂ": 1430,
      "ಭಾಷ": 1431,
      "▁it": 1432,
      ".nic": 1433,
      "द्": 1434,
      "से": 1435,
      "▁क्षेत्र": 1436,
      "esh": 1437,
      "census": 1438,
      "hm": 1439,
      "](https://en.wikipedia.org/api/rest_v1/page/html/F": 1440,
      "46": 1441,
      "▁(P": 1442,
      "గు": 1443,
      "డు": 1444,
      "నే": 1445,
      "్చ": 1446,
      "pend": 1447,
      "र्म": 1448,
      "▁V": 1449,
      "1)": 1450,
      "▁we": 1451,
      "ated": 1452,
      "धान": 1453,
      "वा": 1454,
      "ोत": 1455,
      "▁whi": 1456,
      "మూ": 1457,
      "్రీ": 1458,
      "జాత": 1459,
      ".pdf": 1460,
      ".pdf)": 1461,
      "au": 1462,
      "DF": 1463,
      "▁li": 1464,
      "port": 1465,
      "भि": 1466,
      "श्": 1467,
      "49": 1468,
      "conomic": 1469,
      "ಧರ್ಮ": 1470,
      "▁ಜನ": 1471,
      "lopment": 1472,
      "▁–": 1473,
      "AJ": 1474,
      "-1)": 1475,
      "2010": 1476,
      "धार": 1477,
      "ृत": 1478,
      "▁ने": 1479,
      "లా": 1480,
      "ంగా": 1481,
      "rad": 1482,
      "](https://en.wikipedia.org/api/rest_v1/page/html/T": 1483,
      "BAJ": 1484,
      "QBAJ": 1485,
      "्रा": 1486,
      "▁(PDF": 1487,
      "డ్": 1488,
      "ిల్": 1489,
      "▁జ": 1490,
      "▁[![": 1491,
      "विशेष": 1492,
      "omp": 1493,
      "▁[2": 1494,
      "india.gov.in/": 1495,
      "0%": 1496,
      "ford": 1497,
      "43": 1498,
      "_by": 1499,
      "ficial": 1500,
      "▁5": 1501,
      "ob": 1502,
      "als": 1503,
      "ದಲ್ಲಿ": 1504,
      "ವರ್": 1505,
      "ರಾಜ್ಯ": 1506,
      "ನ್ನು": 1507,
      "के": 1508,
      "ric": 1509,
      "लेख": 1510,
      "ingh": 1511,
      ",_": 1512,
      "లి": 1513,
      "స్త్ర": 1514,
      "aki": 1515,
      "oc": 1516,
      "▁[अ": 1517,
      "ine": 1518,
      "uc": 1519,
      "▁7": 1520,
      "978-0-19": 1521,
      ".nic.in/": 1522,
      "ते": 1523,
      "ase": 1524,
      "▁१": 1525,
      "▁\"R": 1526,
      "ीय_": 1527,
      "కా": 1528,
      "ణా": 1529,
      "దక్ష": 1530,
      "ధిక": 1531,
      "eng": 1532,
      "▁ప్రా": 1533,
      "▁వి": 1534,
      "సియా": 1535,
      "AAQBAJ": 1536,
      "జాతీయ": 1537,
      "1,": 1538,
      "xford": 1539,
      "▁[D": 1540,
      "United": 1541,
      "ंद": 1542,
      "ंत्र": 1543,
      "ूल": 1544,
      "▁\"अ": 1545,
      "▁ति": 1546,
      "▁एक": 1547,
      "udd": 1548,
      "_B": 1549,
      "_c": 1550,
      "ದ್": 1551,
      "ಮು": 1552,
      "▁ಭಾರತ": 1553,
      "ಕ್ಷ": 1554,
      "ಾಗಿ": 1555,
      "ಭಾಷೆ": 1556,
      "వం": 1557,
      "▁at": 1558,
      "▁సం": 1559,
      "▁చరిత్ర": 1560,
      "ire": 1561,
      "ath": 1562,
      "▁[भारत": 1563,
      "▁पु": 1564,
      "विशेष:": 1565,
      "ght": 1566,
      "ven": 1567,
      "ublic": 1568,
      "RI": 1569,
      "riti": 1570,
      "85": 1571,
      "▁[1": 1572,
      "ोग": 1573,
      "MetcalfMetcalf": 1574,
      "డి": 1575,
      "tive": 1576,
      "62": 1577,
      "fe": 1578,
      "ove": 1579,
      "▁[Archived": 1580,
      "िण": 1581,
      "स्तान": 1582,
      "_E": 1583,
      "▁\"स": 1584,
      "4)": 1585,
      "ord": 1586,
      "ex": 1587,
      "ವೇ": 1588,
      "್ಚ": 1589,
      "\")•": 1590,
      "▁[the": 1591,
      "ంధ": 1592,
      "స్త": 1593,
      "▁రాజ్యం": 1594,
      "▁సామ్రాజ్యం": 1595,
      "వర్గ": 1596,
      "దక్షి": 1597,
      "rou": 1598,
      "\"](https://web.archive.org/web/201": 1599,
      "ission": 1600,
      "](https://en.wikipedia.org/api/rest_v1/page/html/E": 1601,
      "ib": 1602,
      "sv": 1603,
      "250": 1604,
      "ark": 1605,
      "దీ": 1606,
      "ack": 1607,
      "ండి": 1608,
      "వర్గం:": 1609,
      "-p": 1610,
      "ीप": 1611,
      "ach": 1612,
      "onstit": 1613,
      "2)": 1614,
      "World": 1615,
      "tin": 1616,
      "ag": 1617,
      "▁प्रदेश": 1618,
      "क्षिण": 1619,
      "▁[E": 1620,
      "out": 1621,
      "▁which": 1622,
      "]](https://kn.wikipedia.org/api/rest_v1/page/html/ಭಾರತ#cite_": 1623,
      "ಕಿ": 1624,
      "ಗಣ": 1625,
      "ದಿ": 1626,
      "ಮಿ": 1627,
      "ರೆ": 1628,
      "ಹಿಂದ": 1629,
      "▁ದ": 1630,
      "తర": 1631,
      "ది": 1632,
      "▁బ": 1633,
      "](https://en.wikipedia.org/api/rest_v1/page/html/D": 1634,
      "▁pro": 1635,
      "cies": 1636,
      "गमन": 1637,
      "थि": 1638,
      "▁[स": 1639,
      "_m": 1640,
      "ali": 1641,
      "▁199": 1642,
      "###": 1643,
      "evelopment": 1644,
      "2009": 1645,
      "bot": 1646,
      "द्य": 1647,
      "नी": 1648,
      "ी_स": 1649,
      "▁तिथि": 1650,
      "](http://www.": 1651,
      "ik": 1652,
      "ట్": 1653,
      "ిత": 1654,
      "ish": 1655,
      "ding": 1656,
      "▁[T": 1657,
      "his": 1658,
      "world": 1659,
      "▁that": 1660,
      "ँच": 1661,
      "यु": 1662,
      "ून": 1663,
      "120": 1664,
      "ts": 1665,
      "37": 1666,
      "▁South": 1667,
      "_language": 1668,
      "_చ": 1669,
      "ం\")": 1670,
      "▁\"మ": 1671,
      "ింది.": 1672,
      "ಗ:": 1673,
      "albot": 1674,
      "▁ಹೆ": 1675,
      "ವರ್ಗ:": 1676,
      "▁ख": 1677,
      "▁तिथि:": 1678,
      "ties": 1679,
      "▁countries": 1680,
      "10.": 1681,
      "▁\"N": 1682,
      "ames": 1683,
      "territ": 1684,
      "_1": 1685,
      "▁भारतीय": 1686,
      "▁India's": 1687,
      "▁\"H": 1688,
      "\")*": 1689,
      "65": 1690,
      "▁[R": 1691,
      "6)": 1692,
      "▁ఎ": 1693,
      "▁[మ": 1694,
      "▁(సా.శ.పూ.": 1695,
      "ril": 1696,
      "67": 1697,
      "cl": 1698,
      "जन": 1699,
      "ढ़": 1700,
      "धिक": 1701,
      "▁अभि": 1702,
      "▁देश": 1703,
      "▁अभिगमन": 1704,
      "Asher": 1705,
      "▁has": 1706,
      "ines": 1707,
      "ass": 1708,
      "iki": 1709,
      "og": 1710,
      "template": 1711,
      "RICS": 1712,
      "3)": 1713,
      "mes": 1714,
      "dit": 1715,
      "tics": 1716,
      "hy": 1717,
      "ren": 1718,
      "▁[N": 1719,
      "धर्म": 1720,
      "्री": 1721,
      "्रोत": 1722,
      "▁जन": 1723,
      "▁तथा": 1724,
      "▁\"भारतीय": 1725,
      "▁2014": 1726,
      "ధ్య": 1727,
      "▁గ": 1728,
      "▁శ": 1729,
      "ంద్ర": 1730,
      "ridge": 1731,
      "ಟಿ": 1732,
      "ಣಿ": 1733,
      "ತಂತ": 1734,
      "▁ಎ": 1735,
      "▁ರ": 1736,
      "▁ಸಾ": 1737,
      "▁ಜನಸಂ": 1738,
      "ತಂತ್ರ": 1739,
      "0.": 1740,
      ".jpg)\n": 1741,
      "IN": 1742,
      "ती": 1743,
      "त्": 1744,
      "बर": 1745,
      "▁च": 1746,
      "▁\"क": 1747,
      "▁हैं।": 1748,
      "▁\"In": 1749,
      "countries": 1750,
      "amil": 1751,
      "sland": 1752,
      "usi": 1753,
      "▁pe": 1754,
      "2004": 1755,
      "ligion": 1756,
      "2003": 1757,
      "AAQBAJ&pg=PA": 1758,
      "nolog": 1759,
      "ైన": 1760,
      "](https://te.wikipedia.org/api/rest_v1/page/html/మ": 1761,
      "▁పే": 1762,
      "हर": 1763,
      "ूर्व": 1764,
      "्ल": 1765,
      "une": 1766,
      "ommission": 1767,
      "ile:": 1768,
      "o-": 1769,
      "List_of_countries": 1770,
      "/https://www.": 1771,
      "ers": 1772,
      "sy": 1773,
      "▁8": 1774,
      "▁ri": 1775,
      "वं": 1776,
      "](https://hi.wikipedia.org/api/rest_v1/page/html/क": 1777,
      "स्तक": 1778,
      "पुस्तक": 1779,
      "विशेष:पुस्तक": 1780,
      "्रोत/": 1781,
      ")\")": 1782,
      "▁\"The": 1783,
      "ical": 1784,
      "\"\n": 1785,
      "han": 1786,
      "ట్ట": 1787,
      "హింద": 1788,
      "▁భారతదేశం": 1789,
      "ంగ్": 1790,
      "ద్ధ": 1791,
      "ree": 1792,
      "▁r": 1793,
      "br": 1794,
      "मान": 1795,
      "ಂಧ": 1796,
      "ಗೆ": 1797,
      "ವಾ": 1798,
      "ಿಮ": 1799,
      "▁ಚ": 1800,
      "▁ಧರ್ಮ": 1801,
      "िका": 1802,
      "▁जा": 1803,
      "ಂದಿ": 1804,
      "ಭಾರತದ_": 1805,
      "▁./ವರ್ಗ:": 1806,
      "राष्ट्रीय": 1807,
      "द्ध": 1808,
      "-m": 1809,
      "..": 1810,
      "hist": 1811,
      "978-0-5": 1812,
      "ost": 1813,
      "hel": 1814,
      "▁Re": 1815,
      "▁[H": 1816,
      "entral": 1817,
      "akistan": 1818,
      "ous": 1819,
      "cre": 1820,
      "दी": 1821,
      "रकार": 1822,
      "हार": 1823,
      "](https://hi.wikipedia.org/api/rest_v1/page/html/स": 1824,
      "पुर": 1825,
      "times": 1826,
      "arch": 1827,
      "mpire": 1828,
      "ించ": 1829,
      "▁ఒ": 1830,
      "▁భాష": 1831,
      "▁[క": 1832,
      "ాల్": 1833,
      "lion": 1834,
      "E0%": 1835,
      "ini": 1836,
      "](https://en.wikipedia.org/api/rest_v1/page/html/A": 1837,
      "South_A": 1838,
      "ritish": 1839,
      "late_": 1840,
      "ah": 1841,
      "▁राज": 1842,
      "▁[क": 1843,
      "▁\"ब": 1844,
      "विश्व": 1845,
      "▁इस": 1846,
      "](https://en.wikipedia.org/api/rest_v1/page/html/R": 1847,
      "7)": 1848,
      "lection": 1849,
      "69": 1850,
      "▁2021": 1851,
      "]](https://te.wikipedia.org/api/rest_v1/page/html/భారతదేశం#cite_": 1852,
      "చ్చ": 1853,
      "జీ": 1854,
      "ేంద్ర": 1855,
      "▁\"క": 1856,
      "▁मेला": 1857,
      "▁[K": 1858,
      "▁St": 1859,
      "MetcalfMetcalf2006": 1860,
      "ulture": 1861,
      "elhi": 1862,
      "gan": 1863,
      "wn": 1864,
      "_ಮ": 1865,
      "ಪಾ": 1866,
      "ಪ್ರ": 1867,
      "▁೧": 1868,
      "ಂಗ್": 1869,
      "ansk": 1870,
      "▁ಪ್ರದೇಶ": 1871,
      "ರಾಷ್ಟ್ರೀಯ": 1872,
      "▁ಜನಸಂಖ್ಯ": 1873,
      "▁U": 1874,
      "▁le": 1875,
      "](https://en.wikipedia.org/api/rest_v1/page/html/File:": 1876,
      "qu": 1877,
      "गु": 1878,
      "▁स्": 1879,
      "रालेख": 1880,
      "eb": 1881,
      "kno": 1882,
      "any": 1883,
      "n_": 1884,
      "త్య": 1885,
      "బ్": 1886,
      "మీ": 1887,
      "](https://te.wikipedia.org/api/rest_v1/page/html/ద": 1888,
      "్యా": 1889,
      "రాష్ట్ర": 1890,
      "▁./వర్గం:": 1891,
      "na": 1892,
      "-t": 1893,
      "ा_": 1894,
      "िव": 1895,
      "▁\"प": 1896,
      "▁हु": 1897,
      "_की_स": 1898,
      "▁वर्": 1899,
      "_में": 1900,
      "act": 1901,
      "anskrit": 1902,
      "1998": 1903,
      "▁te": 1904,
      "](https://en.wikipedia.org/api/rest_v1/page/html/G": 1905,
      "](https://en.wikipedia.org/api/rest_v1/page/html/India#cite_ref-FOOTNOTE": 1906,
      "res": 1907,
      "▁18": 1908,
      "arli": 1909,
      "59": 1910,
      "val": 1911,
      "ध्य": 1912,
      "्च": 1913,
      "▁[ब": 1914,
      "](https://hi.wikipedia.org/api/rest_v1/page/html/अ": 1915,
      "र्थ": 1916,
      "स्क": 1917,
      "ower": 1918,
      "ंग्रेज़": 1919,
      "रालेखित": 1920,
      "2007": 1921,
      "aste": 1922,
      "dom": 1923,
      "lish": 1924,
      "\\_S": 1925,
      "ంక": 1926,
      "ప్": 1927,
      "యు": 1928,
      "orth": 1929,
      "తంత్ర": 1930,
      "](https://te.wikipedia.org/api/rest_v1/page/html/భారతదేశం#cite_ref-": 1931,
      "దక్షిణ": 1932,
      "]](https://te.wikipedia.org/api/rest_v1/page/html/భారతదేశం#cite_note-": 1933,
      "ambridge": 1934,
      "-b": 1935,
      "-in": 1936,
      "uman": 1937,
      "▁\"K": 1938,
      "do-": 1939,
      "▁its": 1940,
      "/c": 1941,
      "ज्": 1942,
      "▁un": 1943,
      "▁भी": 1944,
      "ಟ್ಟ": 1945,
      "ತ್ರ": 1946,
      "ದು": 1947,
      "ಾಲ": 1948,
      "೨೦": 1949,
      "▁ಉ": 1950,
      "▁ಶ": 1951,
      "▁ಭಾಷೆ": 1952,
      "ಾರ್": 1953,
      "▁ಪಾ": 1954,
      "emplate": 1955,
      "ಸ್ತಾನ": 1956,
      "[![": 1957,
      "▁6": 1958,
      "grap": 1959,
      "_F": 1960,
      "ger": 1961,
      "ternational": 1962,
      "RC": 1963,
      "ury": 1964,
      "▁\"Indian": 1965,
      "ati": 1966,
      "ces": 1967,
      "_भारत": 1968,
      "gi": 1969,
      "hand": 1970,
      "थान": 1971,
      "रे": 1972,
      "हास": 1973,
      "िट": 1974,
      "िश": 1975,
      "चित्र": 1976,
      "3,": 1977,
      "_స": 1978,
      "mer": 1979,
      "oi": 1980,
      "తము": 1981,
      "వే": 1982,
      "ష్": 1983,
      "ాన్": 1984,
      "స్క": 1985,
      "ిల్లీ": 1986,
      "05": 1987,
      "ons": 1988,
      "yson": 1989,
      "_In": 1990,
      "▁Hindu": 1991,
      "द्र": 1992,
      "फ़": 1993,
      "ुख": 1994,
      "](https://hi.wikipedia.org/api/rest_v1/page/html/ब": 1995,
      "mb": 1996,
      "▁Ap": 1997,
      ".sv": 1998,
      "▁[In": 1999,
      "▁(201": 2000,
      "uly": 2001,
      "odern": 2002,
      "56": 2003,
      "ome": 2004,
      "on-": 2005,
      "%E0%": 2006,
      "జి": 2007,
      "ధాన": 2008,
      "బె": 2009,
      "ారు": 2010,
      "▁కా": 2011,
      "▁రాజ": 2012,
      "ament": 2013,
      "ave": 2014,
      "▁[978-1": 2015,
      "usic": 2016,
      "34": 2017,
      "शिया": 2018,
      "cient": 2019,
      "](https://hi.wikipedia.org/api/rest_v1/page/html/भारत_में": 2020,
      "\").[[": 2021,
      "▁si": 2022,
      "▁History": 2023,
      "Oxford": 2024,
      "tical": 2025,
      "▁Archived": 2026,
      "8)": 2027,
      "ron": 2028,
      "usines": 2029,
      "uro": 2030,
      "ater": 2031,
      "isation": 2032,
      "tal": 2033,
      "ವಾಗಿ": 2034,
      "ೃತ": 2035,
      "▁\"ಭಾರತದ": 2036,
      "](https://kn.wikipedia.org/api/rest_v1/page/html/ಭಾರತದ_": 2037,
      "ref-1": 2038,
      "note-1": 2039,
      "▁[↑](https://kn.wikipedia.org/api/rest_v1/page/html/ಭಾರತ#cite_": 2040,
      "▁ಕೋ": 2041,
      "ಸ್ಥೆ": 2042,
      "pt": 2043,
      "roup": 2044,
      "ashm": 2045,
      "dition": 2046,
      "ीन": 2047,
      "▁सम": 2048,
      "▁हि": 2049,
      "त्तर": 2050,
      "ograp": 2051,
      "ood": 2052,
      "▁ad": 2053,
      "ice": 2054,
      "uring": 2055,
      "ommissioner": 2056,
      "alth": 2057,
      "Dw": 2058,
      "ug": 2059,
      "దు": 2060,
      "మ్": 2061,
      "శ్": 2062,
      "alay": 2063,
      "](https://te.wikipedia.org/api/rest_v1/page/html/క": 2064,
      "్యవ": 2065,
      "ంది.": 2066,
      "_చరిత్ర": 2067,
      "▁17": 2068,
      "sp": 2069,
      "](https://en.wikipedia.org/api/rest_v1/page/html/H": 2070,
      "मिल": 2071,
      "ुस": 2072,
      "▁सूची": 2073,
      "vision": 2074,
      "ind": 2075,
      "\\_errors": 2076,
      "help": 2077,
      "\"](https://www.": 2078,
      "4%": 2079,
      "ili": 2080,
      "250px-": 2081,
      "gar": 2082,
      "encies": 2083,
      "▁10": 2084,
      "_and_S": 2085,
      "urope": 2086,
      "\\_and": 2087,
      "रु": 2088,
      "ूच": 2089,
      "▁[प": 2090,
      "_temp": 2091,
      "ఢిల్లీ": 2092,
      "పంచ": 2093,
      "ారి": 2094,
      "మూస": 2095,
      "ober": 2096,
      "AARC": 2097,
      "radesh": 2098,
      "](https://en.wikipedia.org/api/rest_v1/page/html/N": 2099,
      "imf": 2100,
      "al_": 2101,
      "▁sub": 2102,
      "▁25": 2103,
      "tinent": 2104,
      "oh": 2105,
      "mund": 2106,
      "othermund": 2107,
      "data": 2108,
      "peration": 2109,
      "कर": 2110,
      "▁सरकार": 2111,
      "_Uni": 2112,
      "ant": 2113,
      "▁([help": 2114,
      "s\"))\n": 2115,
      "▁errors\"))\n": 2116,
      "ಕಾ": 2117,
      "ಪು": 2118,
      "ಯು": 2119,
      "ವೆ": 2120,
      "▁ಮು": 2121,
      "ಹಿಂದೂ": 2122,
      "stem": 2123,
      "▁June": 2124,
      "978-0-521": 2125,
      "ulke": 2126,
      "-l": 2127,
      ".;": 2128,
      "▁were": 2129,
      "onstitution": 2130,
      "వు": 2131,
      "▁\"భారతీయ": 2132,
      "5)": 2133,
      "rib": 2134,
      "Stein2010": 2135,
      ",0": 2136,
      "▁21": 2137,
      "dex": 2138,
      "पाल": 2139,
      "हु": 2140,
      "ा:": 2141,
      "ैद": 2142,
      "ोक": 2143,
      "▁घ": 2144,
      "▁२": 2145,
      "▁तक": 2146,
      "साँच": 2147,
      "किस्तान": 2148,
      "depend": 2149,
      "▁2022": 2150,
      "doi": 2151,
      "2005": 2152,
      "2%": 2153,
      "irst": 2154,
      "article": 2155,
      "ho": 2156,
      "dust": 2157,
      "▁cent": 2158,
      "▁April": 2159,
      "sc": 2160,
      "s\\_": 2161,
      "ound": 2162,
      "▁July": 2163,
      "odi": 2164,
      "्ड": 2165,
      "▁\"F": 2166,
      "](https://hi.wikipedia.org/api/rest_v1/page/html/भारतीय_": 2167,
      "57": 2168,
      "rin": 2169,
      "▁template": 2170,
      "no-t": 2171,
      "\\_no-t": 2172,
      "▁Sfn": 2173,
      "▁target": 2174,
      "fn_temp": 2175,
      "fn\\_no-t": 2176,
      "▁error:": 2177,
      "arget\\_errors": 2178,
      "late_errors": 2179,
      "\\_Sfn\\_no-t": 2180,
      "_and_Sfn_temp": 2181,
      "\\_and\\_Sfn\\_no-t": 2182,
      "▁target:": 2183,
      "arget\\_errors\n": 2184,
      "_and_Sfn_template_errors": 2185,
      "\\_and\\_Sfn\\_no-target\\_errors\n": 2186,
      "](https://web.archive.org/web/20": 2187,
      "erv": 2188,
      "olog": 2189,
      "44": 2190,
      "shi": 2191,
      "▁2016": 2192,
      "ctober": 2193,
      "జన": 2194,
      "టు": 2195,
      "టె": 2196,
      "▁చె": 2197,
      "నాయ": 2198,
      "–సా.శ.పూ.": 2199,
      "▁ఆర్": 2200,
      ".jpg)](https://en.wikipedia.org/api/rest_v1/page/html/File:": 2201,
      "పాలిత": 2202,
      "స్త్రం:": 2203,
      "▁ప్రాంత": 2204,
      "ేంద్రపాలిత": 2205,
      "](https://te.wikipedia.org/api/rest_v1/page/html/దస్త్రం:": 2206,
      "Wiki": 2207,
      "Singh": 2208,
      "les/": 2209,
      "Edit": 2210,
      "Page/": 2211,
      "EditPage/": 2212,
      "ourc": 2213,
      "▁se": 2214,
      "tro": 2215,
      "line": 2216,
      "न\")": 2217,
      "सम": 2218,
      "ूर": 2219,
      "ों_की_स": 2220,
      "श्चि": 2221,
      "▁CITEREF": 2222,
      "▁An": 2223,
      "aint": 2224,
      ",000": 2225,
      "ura": 2226,
      "▁Census": 2227,
      "▁[L": 2228,
      "▁Pro": 2229,
      "articles": 2230,
      "are": 2231,
      "las": 2232,
      "ined": 2233,
      "india.gov.in": 2234,
      "emb": 2235,
      "9)": 2236,
      "country": 2237,
      "ಕೆ": 2238,
      "ತೆ": 2239,
      "ದಾ": 2240,
      "ನೆ": 2241,
      "ುನಾ": 2242,
      "ೇಂದ": 2243,
      "ೈನ": 2244,
      "ೊಂದಿ": 2245,
      "▁ಈ": 2246,
      "▁ಲ": 2247,
      "▁ವಿ": 2248,
      "ಗಳು\n": 2249,
      "ಂಗಾ": 2250,
      "]](https://kn.wikipedia.org/api/rest_v1/page/html/ಭಾರತ#cite_note-": 2251,
      "ಕಿಸ್ತಾನ": 2252,
      "with\\_": 2253,
      "▁World": 2254,
      "121": 2255,
      "_the": 2256,
      "ten": 2257,
      "oor": 2258,
      "ओं": 2259,
      "गण": 2260,
      "ीं": 2261,
      "ूप": 2262,
      "](https://hi.wikipedia.org/api/rest_v1/page/html/प": 2263,
      "ace": 2264,
      "]](https://hi.wikipedia.org/api/rest_v1/page/html/भारत#cite_note-FOOTNOTE": 2265,
      "-f": 2266,
      "ఖ్య": 2267,
      "గో": 2268,
      "తో": 2269,
      "బి": 2270,
      "హి": 2271,
      "2008": 2272,
      "స్కృ": 2273,
      "ia": 2274,
      "Talbot": 2275,
      "AsherTalbot": 2276,
      "omb": 2277,
      "inistry": 2278,
      "air": 2279,
      "[![](https://upload.wikimedia.org/wikipedia/commons/thumb/": 2280,
      "matics": 2281,
      "/http://www.": 2282,
      "ill": 2283,
      "▁2007": 2284,
      "रब": 2285,
      "ली": 2286,
      "्स": 2287,
      "▁किया": 2288,
      "ese": 2289,
      "नाम": 2290,
      "_के_राज्य": 2291,
      "Stein1998": 2292,
      "news/": 2293,
      "ंदिर": 2294,
      "Singh2009": 2295,
      "continent": 2296,
      "▁region": 2297,
      "ortal": 2298,
      "▁sfn": 2299,
      "/0": 2300,
      "eneral": 2301,
      "71": 2302,
      "▁en": 2303,
      "](https://en.wikipedia.org/api/rest_v1/page/html/In": 2304,
      "▁not": 2305,
      "brary": 2306,
      "2-": 2307,
      "▁15": 2308,
      "_ప": 2309,
      "హా": 2310,
      "ి.\n": 2311,
      "▁ను": 2312,
      "▁జాతీయ": 2313,
      "%20%20": 2314,
      "్యవస్థ": 2315,
      "nglish": 2316,
      "▁October": 2317,
      "330": 2318,
      "_प्र": 2319,
      "जी": 2320,
      "दक्षिण": 2321,
      "ष्": 2322,
      "्वीप": 2323,
      "ज्ञ": 2324,
      "_H": 2325,
      "aman": 2326,
      "▁+": 2327,
      "ongress": 2328,
      "▁v": 2329,
      "86": 2330,
      ".\"\n": 2331,
      "man": 2332,
      "uk": 2333,
      "▁co": 2334,
      "india/": 2335,
      "ctor": 2336,
      "▁26": 2337,
      "\\_with\\_": 2338,
      "ories": 2339,
      "a,": 2340,
      "par": 2341,
      "ंजा": 2342,
      "ख्या": 2343,
      "वन": 2344,
      "वे": 2345,
      "led": 2346,
      "न्न": 2347,
      "▁भाषा\")": 2348,
      "▁खाना": 2349,
      "ों_की_सूची": 2350,
      "ंजाब": 2351,
      "ofindia": 2352,
      "C&pg=PA": 2353,
      "ಂಬ": 2354,
      "ಗಿ": 2355,
      "ಗು": 2356,
      "ಡಿ": 2357,
      "ಭೆ": 2358,
      "ಯಾ": 2359,
      "ಸಭೆ": 2360,
      "▁9": 2361,
      "▁ಒ": 2362,
      "▁[ಮ": 2363,
      "▁\"ಮ": 2364,
      "](https://kn.wikipedia.org/api/rest_v1/page/html/ಮ": 2365,
      "▁Asian": 2366,
      "\"](https://": 2367,
      "-g": 2368,
      "ms": 2369,
      "ेव": 2370,
      "sid": 2371,
      "డా": 2372,
      "దా": 2373,
      "బడ": 2374,
      "మే": 2375,
      "రణ": 2376,
      "▁లో": 2377,
      "tember": 2378,
      "▁కూ": 2379,
      "ాలు,": 2380,
      "▁రాష్ట్ర": 2381,
      "eptember": 2382,
      "కిస్తాన్": 2383,
      "▁చరిత్ర\")": 2384,
      "_L": 2385,
      "hp": 2386,
      "▁territ": 2387,
      "ork": 2388,
      "▁Development": 2389,
      "210": 2390,
      "87": 2391,
      "बसे": 2392,
      "ुल": 2393,
      "▁sy": 2394,
      "ेंद्र": 2395,
      "](https://hi.wikipedia.org/api/rest_v1/page/html/भारत_क": 2396,
      "▁गया": 2397,
      "▁राज्यों": 2398,
      "time": 2399,
      "argest": 2400,
      ",6": 2401,
      "fficial": 2402,
      "ority": 2403,
      "▁(PDF)": 2404,
      "ail": 2405,
      "ece": 2406,
      "ouse": 2407,
      "ign": 2408,
      "general": 2409,
      "illion": 2410,
      "▁this": 2411,
      "89": 2412,
      "ing\\_": 2413,
      "oci": 2414,
      "▁[W": 2415,
      "gist": 2416,
      "win": 2417,
      "aw": 2418,
      "fter": 2419,
      "hat": 2420,
      "year": 2421,
      "rab": 2422,
      "बंध": 2423,
      "▁India,": 2424,
      "▁हो": 2425,
      "▁नि": 2426,
      "न्द्र": 2427,
      "▁[मूल": 2428,
      "ियों": 2429,
      "mar": 2430,
      "▁2010": 2431,
      "100": 2432,
      "2014": 2433,
      "je": 2434,
      "▁ఈ": 2435,
      "▁భారత": 2436,
      "త్రి": 2437,
      "ాలు\")": 2438,
      "ాలు](https://te.wikipedia.org/api/rest_v1/page/html/": 2439,
      "8/": 2440,
      "▁[Archived](https://web.archive.org/web/201": 2441,
      "51": 2442,
      "▁population": 2443,
      "ashmir": 2444,
      "lim": 2445,
      "▁Commissioner": 2446,
      "ute": 2447,
      "ley": 2448,
      "PPP": 2449,
      "ed.": 2450,
      "umber": 2451,
      "/A": 2452,
      "चल": 2453,
      "ब्": 2454,
      "िन": 2455,
      "▁सबसे": 2456,
      "ालय": 2457,
      "स्था": 2458,
      "चीन": 2459,
      "▁पुरालेखित": 2460,
      "चित्र:": 2461,
      "▁सूची\")": 2462,
      "▁पुरालेखित।": 2463,
      "31": 2464,
      "75": 2465,
      "rar": 2466,
      "gistrar": 2467,
      "List_of_countries_by": 2468,
      "_and_Sfn_template_errors?action=edit&redlink=1": 2469,
      "ature": 2470,
      "ಖ್": 2471,
      "ಚ್ಚ": 2472,
      "ಟೆ": 2473,
      "ಣೆ": 2474,
      "ಪಂ": 2475,
      "ಬ್ಯಾ": 2476,
      "ಭೂ": 2477,
      "ರಂ": 2478,
      "ಲಾ": 2479,
      "ಷ್": 2480,
      "ಹಾ": 2481,
      "ಹಲಿ": 2482,
      "ು.": 2483,
      "▁[ಭಾರತದ": 2484,
      "ರ್ಥ": 2485,
      "ಂತರ": 2486,
      "ಸಿಂಧ": 2487,
      "ದೆ.": 2488,
      "ದೆಹಲಿ": 2489,
      "ದ್ಧ": 2490,
      "ವೇಬ್ಯಾ": 2491,
      "ವೇಬ್ಯಾಕ್": 2492,
      "ran": 2493,
      "▁[F": 2494,
      "censusindia.gov.in/": 2495,
      "▁government": 2496,
      "gency": 2497,
      "isher": 2498,
      "arliament": 2499,
      "GDP": 2500,
      "_క": 2501,
      "తు": 2502,
      "పతి": 2503,
      "▁ని": 2504,
      "▁స్థ": 2505,
      "▁[అ": 2506,
      "▁[ప": 2507,
      "▁\"భారతదేశం": 2508,
      "్రి": 2509,
      "ర్వ": 2510,
      "న్ని": 2511,
      "మిళ": 2512,
      "వంశ": 2513,
      "Page": 2514,
      "▁Empire": 2515,
      "जरा": 2516,
      "ैन": 2517,
      "](https://hi.wikipedia.org/api/rest_v1/page/html/चित्र:": 2518,
      "ियाँ": 2519,
      "क्ति": 2520,
      "DwAAQBAJ&pg=PA": 2521,
      "-language": 2522,
      "ugh": 2523,
      "ople": 2524,
      ".php": 2525,
      "ved": 2526,
      "dus": 2527,
      ".jpg/250px-": 2528,
      "▁**[": 2529,
      "them": 2530,
      "uj": 2531,
      "_at": 2532,
      "▁0.": 2533,
      "emplate:": 2534,
      "▁September": 2535,
      "▁New": 2536,
      "olper": 2537,
      "orest": 2538,
      "▁\"Special:BookSources/978-1": 2539,
      "](https://en.wikipedia.org/api/rest_v1/page/html/Special:BookSources/978-1": 2540,
      "▁Island": 2541,
      "olpert": 2542,
      "aper": 2543,
      "प्त": 2544,
      "ोर": 2545,
      "।[[": 2546,
      "▁[उ": 2547,
      "▁जिस": 2548,
      "▁प्रा": 2549,
      "स्थान": 2550,
      "ुसार": 2551,
      "1_": 2552,
      "olitical": 2553,
      "ian": 2554,
      "ross": 2555,
      "ledge": 2556,
      "censusindia.gov.in/2011": 2557,
      "Rothermund": 2558,
      "▁En": 2559,
      "▁National": 2560,
      "74": 2561,
      "athe": 2562,
      "_మ": 2563,
      "_భాష": 2564,
      "ఫ్": 2565,
      "▁స్": 2566,
      "▁[బ": 2567,
      "▁[స": 2568,
      "▁\"అ": 2569,
      "▁16": 2570,
      "న్నాయ": 2571,
      "▁2019": 2572,
      "▁కాల": 2573,
      "ులు](https://te.wikipedia.org/api/rest_v1/page/html/": 2574,
      "▁రై": 2575,
      ".jpg)](https://te.wikipedia.org/api/rest_v1/page/html/దస్త్రం:": 2576,
      "హిందూ": 2577,
      "1947": 2578,
      "▁./Category:": 2579,
      "▁Asia\")": 2580,
      ".svg": 2581,
      "dustry": 2582,
      "yn": 2583,
      "also": 2584,
      "ombined": 2585,
      "च्च": 2586,
      "ण्ड": 2587,
      "वरी": 2588,
      "](https://hi.wikipedia.org/api/rest_v1/page/html/भारत#CITEREF": 2589,
      "▁Population": 2590,
      "_सं": 2591,
      "▁है।\n": 2592,
      "▁साथ": 2593,
      "](https://hi.wikipedia.org/api/rest_v1/page/html/भारत_में_": 2594,
      "▁comp": 2595,
      "Kulke": 2596,
      "Pages\\_": 2597,
      "lli": 2598,
      "imes": 2599,
      "ck": 2600,
      "iron": 2601,
      "\")*.": 2602,
      "](https://en.wikipedia.org/api/rest_v1/page/html/List_of_": 2603,
      "▁pl": 2604,
      "▁ch": 2605,
      "_re": 2606,
      "ographi": 2607,
      "iv": 2608,
      "uri": 2609,
      "html)": 2610,
      "_3": 2611,
      "c=": 2612,
      "crease": 2613,
      "old": 2614,
      "gy": 2615,
      "▁2018": 2616,
      "आई": 2617,
      "टे": 2618,
      "ाम": 2619,
      "▁था": 2620,
      "▁धर्म": 2621,
      "▁\"श्रेणी:Harv": 2622,
      "](https://hi.wikipedia.org/api/rest_v1/page/html/श्रेणी:Harv": 2623,
      "▁सि": 2624,
      "्वर": 2625,
      "▁./श्रेणी:Harv": 2626,
      "▁आधार": 2627,
      "▁language\")": 2628,
      "▁संघ": 2629,
      "पाकिस्तान": 2630,
      "▁([help](https://hi.wikipedia.org/api/rest_v1/page/html/श्रेणी:Harv": 2631,
      "▁./श्रेणी:Harv\\_and\\_Sfn\\_no-target\\_errors\n": 2632,
      "▁([help](https://hi.wikipedia.org/api/rest_v1/page/html/श्रेणी:Harv_and_Sfn_template_errors?action=edit&redlink=1": 2633,
      "here": 2634,
      "ಖಂಡ": 2635,
      "ಮ್ರಾ": 2636,
      "ಶ್ಚ": 2637,
      "ಹಾರ": 2638,
      "್ಮ": 2639,
      "್ಯವ": 2640,
      "▁ಸ್ವ": 2641,
      "duc": 2642,
      "ಸ್ಕ": 2643,
      "▁ಹೊಂದಿ": 2644,
      "▁ಹೆಚ್ಚ": 2645,
      "ತಂತ್ರ್ಯ": 2646,
      "▁ಪಾಕಿಸ್ತಾನ": 2647,
      "ುನಾವ": 2648,
      "ರ್ಥಿಕ": 2649,
      "ಮ್ರಾಜ್ಯ": 2650,
      "84": 2651,
      "ఆసియా": 2652,
      "ద్ర": 2653,
      "భూ": 2654,
      "మె": 2655,
      "య్య": 2656,
      "ర్య": 2657,
      "▁ల": 2658,
      "▁\"ప": 2659,
      "▁\"బ": 2660,
      "▁\"స": 2661,
      "▁[↑](https://te.wikipedia.org/api/rest_v1/page/html/భారతదేశం#cite_ref-": 2662,
      "radition": 2663,
      "త్త": 2664,
      "▁అధిక": 2665,
      "▁ప్రదేశ్": 2666,
      "ప్రదేశ్": 2667,
      "▁నుండి": 2668,
      "330px-": 2669,
      "Asia": 2670,
      "king": 2671,
      "ummit\")": 2672,
      "engal": 2673,
      "▁system": 2674,
      "▁est": 2675,
      "Dyson": 2676,
      "▁$": 2677,
      "▁(PDF).": 2678,
      "ganisation": 2679,
      "KulkeRothermund": 2680,
      "ocial": 2681,
      "▁have": 2682,
      ".gov/": 2683,
      "▁2009": 2684,
      "ne": 2685,
      "की": 2686,
      "णा": 2687,
      "तंत्र": 2688,
      "्ला": 2689,
      "▁विश्व": 2690,
      "▁\"उ": 2691,
      "](https://hi.wikipedia.org/api/rest_v1/page/html/उ": 2692,
      "्यट": 2693,
      "row": 2694,
      "ाली": 2695,
      "श्मी": 2696,
      "1/": 2697,
      "viron": 2698,
      "vironment": 2699,
      "-c": 2700,
      "▁[J": 2701,
      "▁\"J": 2702,
      "▁\"South": 2703,
      "anu": 2704,
      "](https://en.wikipedia.org/api/rest_v1/page/html/K": 2705,
      "South_Asia": 2706,
      "▁India:": 2707,
      "88": 2708,
      "Combined": 2709,
      "▁also": 2710,
      "120px-": 2711,
      "ev": 2712,
      "ument": 2713,
      "ourt": 2714,
      "Library": 2715,
      "entre": 2716,
      "low": 2717,
      "230": 2718,
      "▁us": 2719,
      "▁Pradesh": 2720,
      "▁year": 2721,
      "one": 2722,
      "ally": 2723,
      "lear": 2724,
      "▁into": 2725,
      "_Press": 2726,
      "uclear": 2727,
      "uropean": 2728,
      "ణి": 2729,
      "తమిళ": 2730,
      "మైన": 2731,
      "హార": 2732,
      "ోర్": 2733,
      "▁\"ఇ": 2734,
      "▁\"భారత": 2735,
      "](https://te.wikipedia.org/api/rest_v1/page/html/బ": 2736,
      "ters": 2737,
      "▁మొ": 2738,
      "నాగ": 2739,
      "త్తర": 2740,
      "ులు\")": 2741,
      "శ్మీ": 2742,
      "మూస:": 2743,
      "ंब": 2744,
      "गढ़": 2745,
      "ज्य": 2746,
      "तमिल": 2747,
      "दा": 2748,
      "भी": 2749,
      "ांग": 2750,
      "ेर": 2751,
      "्रिट": 2752,
      "▁अधिक": 2753,
      "तिहास": 2754,
      "▁१९": 2755,
      "युक्त": 2756,
      "स्कृत": 2757,
      "▁हिन्द": 2758,
      "▁per": 2759,
      ".gov.in/": 2760,
      "eration": 2761,
      ".png": 2762,
      "tt": 2763,
      "has": 2764,
      "apita": 2765,
      "ote": 2766,
      "▁Se": 2767,
      "-2)": 2768,
      "▁1,": 2769,
      "61": 2770,
      "▁their": 2771,
      "ool": 2772,
      "ember": 2773,
      "cat": 2774,
      "rac": 2775,
      "](https://en.wikipedia.org/api/rest_v1/page/html/Indian": 2776,
      "sical": 2777,
      "▁during": 2778,
      "_summit": 2779,
      "▁Ch": 2780,
      "ffair": 2781,
      "%28": 2782,
      "-re": 2783,
      "में": 2784,
      "▁मान": 2785,
      "याल": 2786,
      "▁बाद": 2787,
      "्वार": 2788,
      "▁2023": 2789,
      "िल्ल": 2790,
      "्राज्य": 2791,
      "Dyson2018": 2792,
      "76": 2793,
      "▁Aug": 2794,
      "▁[Archived](https://web.archive.org/web/20": 2795,
      "▁August": 2796,
      "wing": 2797,
      "▁[I": 2798,
      "ural": 2799,
      "embly": 2800,
      "-india-": 2801,
      "7-1": 2802,
      "-of": 2803,
      "▁Ass": 2804,
      "thern": 2805,
      "thnolog": 2806,
      "ominal": 2807,
      "▁first": 2808,
      "-81": 2809,
      "▁Press\").": 2810,
      "outledge": 2811,
      "ughal": 2812,
      "thnologue": 2813,
      "_d": 2814,
      "known": 2815,
      "jab": 2816,
      "శా": 2817,
      "ైనా": 2818,
      "▁[ఇ": 2819,
      "▁\"జ": 2820,
      "](https://te.wikipedia.org/api/rest_v1/page/html/ఇ": 2821,
      "](https://te.wikipedia.org/api/rest_v1/page/html/స": 2822,
      "భారత_": 2823,
      "రాజ": 2824,
      "లో](https://te.wikipedia.org/api/rest_v1/page/html/": 2825,
      "రిజ": 2826,
      "క్కు": 2827,
      "ండ్": 2828,
      "lag": 2829,
      "స్కృతి": 2830,
      "▁1947": 2831,
      "ಕ್ತ": 2832,
      "ಗೋ": 2833,
      "ಜಾ": 2834,
      "ಜೈನ": 2835,
      "ಡಳ": 2836,
      "ಡೆ": 2837,
      "ಡ್": 2838,
      "ಧ್ಯ": 2839,
      "ಯಿ": 2840,
      "ಳಿ": 2841,
      "ಳು": 2842,
      "ಷಿ": 2843,
      "ಷ್ಯಾ": 2844,
      "ಿಲಿ": 2845,
      "ೀಪ": 2846,
      "ೋಕ": 2847,
      "ೌದ್ಧ": 2848,
      "▁[ಬ": 2849,
      "▁\"ಬ": 2850,
      "](https://kn.wikipedia.org/api/rest_v1/page/html/ಬ": 2851,
      "▁**ರಾಷ್ಟ್ರೀಯ": 2852,
      "epublic": 2853,
      "▁ಬೆ": 2854,
      "ತಿಹಾ": 2855,
      "ರುವ": 2856,
      "▁ಜನಸಂಖ್ಯೆ": 2857,
      "▁ಕೋಟಿ": 2858,
      "ಶ್ಚಿಮ": 2859,
      "ುನಾವಣೆ": 2860,
      "ಡಳಿತ": 2861,
      "ತಿಹಾಸ": 2862,
      "-20": 2863,
      "▁\"O": 2864,
      "2_": 2865,
      "sourc": 2866,
      "_और": 2867,
      "एं": 2868,
      "वर्": 2869,
      "शास": 2870,
      "▁कार": 2871,
      "क्षेत्र": 2872,
      "माण": 2873,
      "ड़ा": 2874,
      "▁शास": 2875,
      "म्ब": 2876,
      "▁साम": 2877,
      "▁यह": 2878,
      "▁[भारतीय": 2879,
      "%E0%A": 2880,
      "ज्ञान": 2881,
      "arti": 2882,
      "▁languages": 2883,
      "censusindia.gov.in/2011census": 2884,
      "annic": 2885,
      "ritannic": 2886,
      "▁[U": 2887,
      "2,": 2888,
      "tain": 2889,
      "▁ag": 2890,
      "▁[t": 2891,
      "2/": 2892,
      "ua": 2893,
      "▁/": 2894,
      "▁30": 2895,
      "\".": 2896,
      ".jpg/330px-": 2897,
      "cience": 2898,
      "2-0)": 2899,
      "▁'": 2900,
      "city": 2901,
      "mbol": 2902,
      "_t": 2903,
      "_%28": 2904,
      "▁world": 2905,
      "▁GDP": 2906,
      "history": 2907,
      "India)": 2908,
      "ight": 2909,
      "01": 2910,
      "▁2024": 2911,
      "_भाषा": 2912,
      "तर": 2913,
      "लु": 2914,
      "ाट": 2915,
      "▁थ": 2916,
      "▁\"विशेष:पुस्तक": 2917,
      "](https://hi.wikipedia.org/api/rest_v1/page/html/ISBN_(identifier)": 2918,
      "](https://hi.wikipedia.org/api/rest_v1/page/html/विशेष:पुस्तक": 2919,
      "▁स्रोत/": 2920,
      "▁पा": 2921,
      "](https://hi.wikipedia.org/api/rest_v1/page/html/भारत_के_": 2922,
      "लाई": 2923,
      "_स्रोत/": 2924,
      "▁./श्रेणी:": 2925,
      "▁[ISBN](https://hi.wikipedia.org/api/rest_v1/page/html/ISBN_(identifier)": 2926,
      "_के_आ": 2927,
      "▁लि": 2928,
      "साँचा:": 2929,
      "श्चिम": 2930,
      "ांग्ला": 2931,
      "](https://hi.wikipedia.org/api/rest_v1/page/html/विशेष:पुस्तक_स्रोत/": 2932,
      "hism": 2933,
      "actbook": 2934,
      "adu": 2935,
      "tern": 2936,
      "lob": 2937,
      "hen": 2938,
      "ం?action=edit&redlink=1": 2939,
      "చే": 2940,
      "బా": 2941,
      "▁[జ": 2942,
      "▁పా": 2943,
      "▁వా": 2944,
      "ండు": 2945,
      "▁చూ": 2946,
      "త్వ": 2947,
      "ప్రధాన": 2948,
      "▁తే": 2949,
      "udden": 2950,
      "etwe": 2951,
      "chnolog": 2952,
      "etween": 2953,
      "come": 2954,
      "▁al": 2955,
      "▁1950": 2956,
      "rish": 2957,
      "▁Chin": 2958,
      "_K": 2959,
      "inister": 2960,
      "ology": 2961,
      "–1": 2962,
      "ama": 2963,
      "-le": 2964,
      "-19": 2965,
      "term": 2966,
      "-80": 2967,
      "▁state": 2968,
      "ban": 2969,
      "iver": 2970,
      "nominal": 2971,
      "▁[3": 2972,
      "](https://en.wikipedia.org/api/rest_v1/page/html/J": 2973,
      "1994": 2974,
      "▁original](https://www.": 2975,
      "nominal)": 2976,
      "▁Sh": 2977,
      "ंप": 2978,
      "मुख": 2979,
      "▁राष्ट्रीय": 2980,
      "▁[↑](https://hi.wikipedia.org/api/rest_v1/page/html/भारत#cite_": 2981,
      "unjab": 2982,
      "▁जु": 2983,
      "▁है,": 2984,
      "ेश्वर": 2985,
      "▁उप": 2986,
      "▁यु": 2987,
      "त्प": 2988,
      "गुजरा": 2989,
      "ूचना": 2990,
      "_प्रदेश": 2991,
      "Pages\\_us": 2992,
      "्रिटिश": 2993,
      "resid": 2994,
      "904": 2995,
      "rganisation": 2996,
      "▁[[": 2997,
      "ooperation": 2998,
      "4/": 2999,
      "\")**": 3000,
      "▁General": 3001,
      ".jpg/120px-": 3002,
      "▁1.": 3003,
      "▁form": 3004,
      "CS1": 3005,
      "▁subcontinent": 3006,
      "ok": 3007,
      "versity_Press": 3008,
      "▁2014.\n": 3009,
      "ya": 3010,
      "_W": 3011,
      "▁Metcalf": 3012,
      "umbai": 3013,
      "2023": 3014,
      "▁Feb": 3015,
      "▁2017": 3016,
      "▁2020": 3017,
      "off": 3018,
      ",9": 3019,
      "_సా": 3020,
      "_पर": 3021,
      "s18": 3022,
      "काल": 3023,
      "बाद": 3024,
      "रक्ष": 3025,
      "वाद": 3026,
      "ाष्ट्र": 3027,
      "ागर": 3028,
      "ोर्": 3029,
      "ంప": 3030,
      "కో": 3031,
      "గణ": 3032,
      "దిన": 3033,
      "నై": 3034,
      "రీ": 3035,
      "▁[सं": 3036,
      "▁\"చ": 3037,
      "](https://te.wikipedia.org/api/rest_v1/page/html/జ": 3038,
      "ారం": 3039,
      "िक्ष": 3040,
      "▁క్రీ": 3041,
      "క్‌": 3042,
      "నికి": 3043,
      "ల్ల": 3044,
      "ంగీ": 3045,
      "▁సి": 3046,
      "imate": 3047,
      "నాభా": 3048,
      "జాబి": 3049,
      "_मेला": 3050,
      "नेमा": 3051,
      "धार_पर": 3052,
      "▁[![](https://upload.wikimedia.org/wikipedia/commons/thumb/": 3053,
      "द्योग": 3054,
      "▁శా": 3055,
      "हाराष्ट्र": 3056,
      "▁భాష\")": 3057,
      "బెంగ": 3058,
      "_के_आधार_पर": 3059,
      "జాబితా": 3060,
      "_के_आधार_पर_भारत": 3061,
      "CE": 3062,
      "ade": 3063,
      "▁depend": 3064,
      "end": 3065,
      "▁2006": 3066,
      "ft": 3067,
      "view": 3068,
      "ಗ್ರಾ": 3069,
      "ಣಾ": 3070,
      "ಪತಿ": 3071,
      "ಮ್": 3072,
      "ಮಾನ": 3073,
      "ಸಾ": 3074,
      "ೂರ್": 3075,
      "ೆಷಿ": 3076,
      "ೊಂಡ": 3077,
      "▁ದೇಶ": 3078,
      "▁ರಾಜ್ಯ": 3079,
      "ಾರ್ವ": 3080,
      "ರ್ಕ": 3081,
      "▁ಸಿ": 3082,
      "ಗಳಲ್ಲಿ": 3083,
      "ನ್.": 3084,
      "▁ಹೋ": 3085,
      "ಕ್ಕೆ": 3086,
      "▁ನಗ": 3087,
      "ತ್ತು_": 3088,
      "▁ಅತಿ": 3089,
      "ಸಂಸ್ಕ": 3090,
      "ಸಿಖ್": 3091,
      "▁ಆರ್ಥಿಕ": 3092,
      "ಸ್ಥಾನ": 3093,
      "ಗಣರಾಜ್ಯ": 3094,
      "▁ಹೆಸ": 3095,
      "_ಮತ್ತು_": 3096,
      "ಪ್ರದೇಶ": 3097,
      "▁೧೯": 3098,
      "ತ್ರಿಕ": 3099,
      "೨೦೧": 3100,
      "ೇಂದ್ರ": 3101,
      "ಸಿಂಧೂ": 3102,
      "▁ಹೆಚ್ಚು": 3103,
      "ೆಷಿನ್": 3104,
      "ಾರ್ವತ್ರಿಕ": 3105,
      "ಸಂಸ್ಕೃತ": 3106,
      "busines": 3107,
      "▁India\"),": 3108,
      "vers": 3109,
      "▁2012": 3110,
      "ecember": 3111,
      "don": 3112,
      "ies": 3113,
      "ime": 3114,
      "s.[[": 3115,
      "omen": 3116,
      "ommon": 3117,
      "raven": 3118,
      "978-0-19-8": 3119,
      "anuary": 3120,
      ".n": 3121,
      "html).": 3122,
      "ince": 3123,
      "-17": 3124,
      "Pages\\_using\\_": 3125,
      "Vi": 3126,
      "▁Act": 3127,
      "▁:": 3128,
      "▁Language": 3129,
      "_19": 3130,
      "pib": 3131,
      "एशिया": 3132,
      "लि": 3133,
      "ल\")": 3134,
      "▁स्व": 3135,
      "▁मंदिर": 3136,
      "्यव": 3137,
      "▁दक्षिण": 3138,
      "ंगा": 3139,
      "doc": 3140,
      "ंग्रेज़ी": 3141,
      "▁पुरालेखित।.": 3142,
      "chnology": 3143,
      "▁जुलाई": 3144,
      "_के_आधार_पर_भारत_के_राज्य": 3145,
      "4-0)": 3146,
      "▁2015": 3147,
      "harat": 3148,
      "▁been": 3149,
      "3-0)": 3150,
      "_I": 3151,
      "ast_": 3152,
      "dle": 3153,
      "rans": 3154,
      "eser": 3155,
      "978-81": 3156,
      "▁January": 3157,
      "lassical": 3158,
      "eport": 3159,
      "ode": 3160,
      "▁Congress": 3161,
      "▁but": 3162,
      "▁May": 3163,
      "national-": 3164,
      "va": 3165,
      "▁[19": 3166,
      "ligi": 3167,
      "▁between": 3168,
      "2019": 3169,
      "NGDP": 3170,
      "Wolpert": 3171,
      "చల్": 3172,
      "యన్": 3173,
      "షు": 3174,
      "ూర్": 3175,
      "▁[చ": 3176,
      "▁[భారత": 3177,
      "▁[భారతీయ": 3178,
      "](https://te.wikipedia.org/api/rest_v1/page/html/ప": 3179,
      "](https://te.wikipedia.org/api/rest_v1/page/html/భారతీయ": 3180,
      "ార్ట": 3181,
      "ాలయ": 3182,
      "క్క": 3183,
      "▁వ్యవస్థ": 3184,
      "▁ము": 3185,
      "ండో": 3186,
      "ముంబ": 3187,
      "సిన": 3188,
      "ినల్": 3189,
      "ద్ద": 3190,
      "▁ఉన్న": 3191,
      "▁ఉన్నాయ": 3192,
      "పాకిస్తాన్": 3193,
      "ంధీ": 3194,
      "▁ఒక": 3195,
      "▁ఒరిజ": 3196,
      "వంశం": 3197,
      "ujar": 3198,
      "▁తేదీ": 3199,
      "Wolpert2003": 3200,
      "ార్టీ": 3201,
      "▁ఒరిజినల్": 3202,
      ".c": 3203,
      "auth": 3204,
      "gl": 3205,
      "▁im": 3206,
      "▁\"W": 3207,
      "andhi": 3208,
      "oll": 3209,
      "able": 3210,
      "amme": 3211,
      "gramme": 3212,
      "/P": 3213,
      "/India": 3214,
      "_O": 3215,
      "ering": 3216,
      "0000": 3217,
      "▁22": 3218,
      "▁24": 3219,
      "fric": 3220,
      "ीस": 3221,
      "००": 3222,
      "▁ru": 3223,
      "▁नाम": 3224,
      "▁पूर्व": 3225,
      "iddle": 3226,
      "▁more": 3227,
      "change": 3228,
      "▁अप": 3229,
      "नाग": 3230,
      "▁विक": 3231,
      "▁national": 3232,
      "▁Increase": 3233,
      "Harle": 3234,
      "harma": 3235,
      "▁[*A": 3236,
      "▁रूप": 3237,
      "▁[↑](https://hi.wikipedia.org/api/rest_v1/page/html/भारत#cite_ref-FOOTNOTE": 3238,
      "▁देशों": 3239,
      "_University_Press": 3240,
      "▁[O": 3241,
      "arn": 3242,
      "_Development": 3243,
      "inf": 3244,
      "ves": 3245,
      "▁official": 3246,
      "▁Cambridge": 3247,
      "ingu": 3248,
      "-s": 3249,
      "mu": 3250,
      "din": 3251,
      "▁bec": 3252,
      "00)": 3253,
      "-d": 3254,
      "%2F": 3255,
      "udi": 3256,
      "tates": 3257,
      "duct": 3258,
      "gence": 3259,
      "estic": 3260,
      "_GDP": 3261,
      "eh": 3262,
      "amp": 3263,
      "avid": 3264,
      "55": 3265,
      "▁Y": 3266,
      "\"):": 3267,
      "ess": 3268,
      "Hindi": 3269,
      "oon": 3270,
      "etary": 3271,
      "hol": 3272,
      "▁[Indian": 3273,
      "ics": 3274,
      "berg": 3275,
      "▁century": 3276,
      "s\n": 3277,
      "▁time": 3278,
      "_in_": 3279,
      "▁Hindi": 3280,
      "rof": 3281,
      "1996": 3282,
      "fic": 3283,
      "ंक": 3284,
      "धी": 3285,
      "ोन": 3286,
      "ार्": 3287,
      "▁कि": 3288,
      "ंगाल": 3289,
      "▁तट": 3290,
      "▁न्या": 3291,
      "▁एवं": 3292,
      "श्मीर": 3293,
      "%E0%A4%": 3294,
      "्यवस्था": 3295,
      "%29": 3296,
      ":[": 3297,
      ".org/10.": 3298,
      "2024": 3299,
      "edu": 3300,
      "▁East": 3301,
      "doi.org/10.": 3302,
      "▁ac": 3303,
      "_and_depend": 3304,
      "fr": 3305,
      "ram": 3306,
      "wo": 3307,
      "జ్": 3308,
      "వరి": 3309,
      "శ్చ": 3310,
      "ిన్న": 3311,
      "ెల": 3312,
      "▁\"భారతదేశ": 3313,
      "్రె": 3314,
      "ాలు\n": 3315,
      "నిస్తాన్": 3316,
      ".com/news/": 3317,
      "▁మధ్య": 3318,
      "](https://te.wikipedia.org/api/rest_v1/page/html/భారతదేశంలో": 3319,
      "స్థాన్": 3320,
      "▁పేజీ": 3321,
      "మ్మూ": 3322,
      "▁\"భారతదేశంలో": 3323,
      "▁చూసిన": 3324,
      "▁తేదీ:": 3325,
      "శ్చి": 3326,
      "▁పేజీని": 3327,
      "get": 3328,
      "formatics": 3329,
      "lang": 3330,
      "ped": 3331,
      "ox": 3332,
      "anc": 3333,
      "lad": 3334,
      "uch": 3335,
      "▁\"I": 3336,
      "](https://en.wikipedia.org/api/rest_v1/page/html/L": 3337,
      "rop": 3338,
      "▁music": 3339,
      "▁after": 3340,
      "▁dance": 3341,
      "ompany": 3342,
      "rick": 3343,
      "▁Per": 3344,
      "▁English": 3345,
      "ographic": 3346,
      "▁[e": 3347,
      "▁[v": 3348,
      "ayan": 3349,
      "▁dom": 3350,
      "ಕ್ರ": 3351,
      "ತ್ಯ": 3352,
      "ಧಾನ": 3353,
      "ಬ್": 3354,
      "ಸು": 3355,
      "್ಥ": 3356,
      "೦೦": 3357,
      "▁ತ": 3358,
      "▁ರಾಷ್ಟ್ರ": 3359,
      "](https://kn.wikipedia.org/api/rest_v1/page/html/ಚ": 3360,
      "[[೧": 3361,
      "▁March": 3362,
      "▁ಸ್ಥ": 3363,
      "ರಾಜ": 3364,
      "▁ವರ್": 3365,
      "ಂತ್ರಿ": 3366,
      "▁ಅನೇ": 3367,
      "ದೆ.\n": 3368,
      "▁ಸಾಮ್ರಾಜ್ಯ": 3369,
      "▁ಜನಸಂಖ್ಯೆಯ": 3370,
      "ಟ್ಟು": 3371,
      "▁[↑](https://kn.wikipedia.org/api/rest_v1/page/html/ಭಾರತ#cite_ref-": 3372,
      "▁ಸ್ವಾ": 3373,
      "▁ಅನೇಕ": 3374,
      "how": 3375,
      "▁other": 3376,
      ".as": 3377,
      "ttar": 3378,
      "सद": 3379,
      "▁[न": 3380,
      "▁\"द": 3381,
      "▁केंद्र": 3382,
      "्तर": 3383,
      "भाग": 3384,
      "संख्या": 3385,
      "▁अनुसार": 3386,
      "▁प्रदेश\")": 3387,
      "▁स्थ": 3388,
      "_4": 3389,
      "hang": 3390,
      "telli": 3391,
      "▁pri": 3392,
      "telligence": 3393,
      "minist": 3394,
      "▁over": 3395,
      "▁ab": 3396,
      "form": 3397,
      "▁number": 3398,
      "ned": 3399,
      "▁Th": 3400,
      "▁December": 3401,
      "_pro": 3402,
      "wart": 3403,
      "zberg": 3404,
      "2001": 3405,
      "chwart": 3406,
      "▁who": 3407,
      "cture": 3408,
      "▁Press.": 3409,
      "emple": 3410,
      "▁years": 3411,
      "chwartzberg": 3412,
      "a/": 3413,
      "Ar": 3414,
      "0&": 3415,
      "▁[Stein": 3416,
      "times.com/": 3417,
      "▁Nations": 3418,
      "63": 3419,
      "73": 3420,
      "▁India\").": 3421,
      "▁2011.\n": 3422,
      "ustral": 3423,
      "ovement": 3424,
      "ris": 3425,
      "ough": 3426,
      "istic": 3427,
      "*,": 3428,
      "List_of_countries_by_GDP": 3429,
      "List_of_countries_by_GDP_(": 3430,
      "▁k": 3431,
      "life": 3432,
      "edic": 3433,
      "ird": 3434,
      "glance": 3435,
      "एँ": 3436,
      "एस": 3437,
      "खा": 3438,
      "गो": 3439,
      "चे": 3440,
      "सी": 3441,
      "ैक": 3442,
      "ोड़": 3443,
      "▁[हिन्द": 3444,
      "▁[United": 3445,
      "ार्ट": 3446,
      "▁मूल": 3447,
      "विधान": 3448,
      "▁जो": 3449,
      "▁बहु": 3450,
      "▁सेना": 3451,
      "ड़ी": 3452,
      "म्बर": 3453,
      ".jpg)](https://hi.wikipedia.org/api/rest_v1/page/html/चित्र:": 3454,
      "▁भू": 3455,
      "धिकार": 3456,
      "्यटन": 3457,
      "ID": 3458,
      "UN": 3459,
      "షన్": 3460,
      "హ్": 3461,
      "ెలు": 3462,
      "](https://te.wikipedia.org/api/rest_v1/page/html/అ": 3463,
      "రియా": 3464,
      "▁మార్": 3465,
      "ప్రపంచ": 3466,
      "▁సంస్కృతి": 3467,
      "దీవ": 3468,
      "81": 3469,
      "79": 3470,
      "83": 3471,
      "ton": 3472,
      "ann": 3473,
      "▁most": 3474,
      "anglad": 3475,
      "▁(identifier)\"):[": 3476,
      "angladesh": 3477,
      "ficient": 3478,
      "▁[Metcalf": 3479,
      "att": 3480,
      "▁part": 3481,
      ".india": 3482,
      "cri": 3483,
      "▁Constitution": 3484,
      "-in-": 3485,
      "resident": 3486,
      "7%": 3487,
      "ey": 3488,
      "त्य": 3489,
      "CO": 3490,
      "obb": 3491,
      "rist": 3492,
      "2000": 3493,
      "▁house": 3494,
      "cyc": 3495,
      "oth": 3496,
      "onstitu": 3497,
      "▁territories": 3498,
      "/fi": 3499,
      "Re": 3500,
      "▁14": 3501,
      "▁right": 3502,
      "▁%": 3503,
      "▁wi": 3504,
      "union": 3505,
      "ritannica": 3506,
      "▁all": 3507,
      "alley": 3508,
      "\\_country": 3509,
      "_of_the": 3510,
      "obox": 3511,
      "-language\\_": 3512,
      "infobox": 3513,
      "EO": 3514,
      "WEO": 3515,
      "▁art": 3516,
      "▁India\")\n": 3517,
      "▁election": 3518,
      "earch": 3519,
      "rade": 3520,
      "▁[2](https://en.wikipedia.org/api/rest_v1/page/html/India#cite_ref-FOOTNOTE": 3521,
      "▁[1](https://en.wikipedia.org/api/rest_v1/page/html/India#cite_ref-FOOTNOTE": 3522,
      "\"](https://web.archive.org/web/20160": 3523,
      "ikshi": 3524,
      "ikshit": 3525,
      "तिक": 3526,
      "दू": 3527,
      "भू": 3528,
      "श्री": 3529,
      "ीत": 3530,
      "ील": 3531,
      "kim": 3532,
      "▁par": 3533,
      "नाथ": 3534,
      "_क्षेत्र": 3535,
      "▁एशिया": 3536,
      "▁अन्य": 3537,
      "गुजरात": 3538,
      "efficient": 3539,
      "/5": 3540,
      "ive": 3541,
      "onetary": 3542,
      "olicy": 3543,
      "-23": 3544,
      "er,": 3545,
      "_f": 3546,
      "ruary": 3547,
      "5-0)": 3548,
      "arb": 3549,
      "rent": 3550,
      "▁estimate": 3551,
      "▁[India": 3552,
      "right": 3553,
      "rm": 3554,
      "ased": 3555,
      "List_of_countries_and_depend": 3556,
      "encies_by": 3557,
      "▁dependencies": 3558,
      "List_of_countries_and_dependencies_by": 3559,
      ",5": 3560,
      "▁\"United": 3561,
      "208": 3562,
      "CN": 3563,
      "ash": 3564,
      "▁spe": 3565,
      "ed.).": 3566,
      "onstituent": 3567,
      "site": 3568,
      "_Indian": 3569,
      "_territ": 3570,
      "▁Talbot": 3571,
      "/S": 3572,
      "En": 3573,
      "Fisher": 3574,
      "IM": 3575,
      "f/": 3576,
      "t-": 3577,
      "Fisher2018": 3578,
      "_n": 3579,
      "_వ": 3580,
      "lam": 3581,
      "ం\"),": 3582,
      "ంత్రి": 3583,
      "ఆఫ్": 3584,
      "కత": 3585,
      "కై": 3586,
      "క్య": 3587,
      "దాయ": 3588,
      "రే": 3589,
      "లంక": 3590,
      "వీ": 3591,
      "శ్రీ": 3592,
      "షి": 3593,
      "సు": 3594,
      "▁ఏ": 3595,
      "▁[సి": 3596,
      "▁[South": 3597,
      "](https://te.wikipedia.org/api/rest_v1/page/html/చ": 3598,
      "స్సా": 3599,
      "▁పరి": 3600,
      "▁పార్టీ": 3601,
      "న్‌": 3602,
      "▁కు": 3603,
      "▁వచ్చ": 3604,
      "ముద్ర": 3605,
      "ndaman": 3606,
      "▁Oxford": 3607,
      "గాంధీ": 3608,
      "నేపాల": 3609,
      "clu": 3610,
      "▁పేరు": 3611,
      "హిందీ": 3612,
      "▁చెయ్య": 3613,
      "▁కూడా": 3614,
      "ంగీతం": 3615,
      "▁2006](https://en.wikipedia.org/api/rest_v1/page/html/India#CITEREF": 3616,
      "ముంబై": 3617,
      "శ్చిమ": 3618,
      "▁మార్గ": 3619,
      "▁చెయ్యబడ": 3620,
      "ffairs": 3621,
      "ffice": 3622,
      "garh": 3623,
      "-26": 3624,
      "98": 3625,
      "अन": 3626,
      "जय": 3627,
      "टक": 3628,
      "पी": 3629,
      "पति": 3630,
      "मह": 3631,
      "रो": 3632,
      "ेस": 3633,
      "▁ड": 3634,
      "▁फ": 3635,
      "▁[द": 3636,
      "िया\")": 3637,
      "▁गण": 3638,
      "म्म": 3639,
      "ी_भाषा": 3640,
      "वंश": 3641,
      "▁जाता": 3642,
      "▁वर्ष": 3643,
      "ैदान": 3644,
      "वेब": 3645,
      "तंत्रता": 3646,
      "▁साम्राज्य": 3647,
      "द्योगिक": 3648,
      "back": 3649,
      "▁Data": 3650,
      "▁area": 3651,
      "mbols": 3652,
      "langoff": 3653,
      "-21": 3654,
      "bi": 3655,
      "oin": 3656,
      "tary": 3657,
      "ale": 3658,
      "ake": 3659,
      "▁hi": 3660,
      "araj": 3661,
      "_12": 3662,
      "PPP)": 3663,
      "lobal": 3664,
      "1-0)": 3665,
      "_ಭಾಷೆ": 3666,
      "ಂಶ": 3667,
      "ಏಷ್ಯಾ": 3668,
      "ಧಿಕ": 3669,
      "ನಿ": 3670,
      "ಯನ್": 3671,
      "ಲ್ತ": 3672,
      "ಲೋಕ": 3673,
      "ಾಲ್": 3674,
      "ಿಣ": 3675,
      "▁ಭ": 3676,
      "▁ar": 3677,
      "orthern": 3678,
      "an\")": 3679,
      "](https://kn.wikipedia.org/api/rest_v1/page/html/G": 3680,
      "▁ಸು": 3681,
      "▁ಮಾ": 3682,
      "ಂದರೆ": 3683,
      "▁ಪಶ್ಚಿಮ": 3684,
      "▁ಪೂರ್": 3685,
      "▁had": 3686,
      "▁ವ್ಯವ": 3687,
      "▁ನಂತರ": 3688,
      "್ವೀಪ": 3689,
      "▁ಸಂಪ": 3690,
      "ದ್ದು": 3691,
      "ಕ್ಷಿಣ": 3692,
      "ಹಿಂದಿ": 3693,
      "▁ರೂ": 3694,
      "▁ರಲ್ಲಿ": 3695,
      "▁ಚುನಾವಣೆ": 3696,
      "ಾಲಯ": 3697,
      "▁ಶತ": 3698,
      "▁ಒಟ್ಟು": 3699,
      "ಳುವ": 3700,
      "▁ಬೆಳ": 3701,
      "▁ಸ್ವಾತಂತ್ರ್ಯ": 3702,
      "ಧಿಕೃತ": 3703,
      "▁ಪೂರ್ವ": 3704,
      "vel": 3705,
      "▁Di": 3706,
      "_e": 3707,
      "7C": 3708,
      "hite": 3709,
      "wealth": 3710,
      "▁me": 3711,
      "▁Budd": 3712,
      "▁BCE": 3713,
      "25.": 3714,
      "▁[2](https://en.wikipedia.org/api/rest_v1/page/html/India#cite_ref-": 3715,
      "▁[1](https://en.wikipedia.org/api/rest_v1/page/html/India#cite_ref-": 3716,
      "▁2010](https://en.wikipedia.org/api/rest_v1/page/html/India#CITEREF": 3717,
      ".png)": 3718,
      "Con": 3719,
      "pect": 3720,
      "eds.": 3721,
      "▁\"Re": 3722,
      "-to": 3723,
      "oy": 3724,
      "ISO": 3725,
      "▁2008": 3726,
      "stitution": 3727,
      "ised": 3728,
      "▁2021.\n": 3729,
      "articleshow": 3730,
      ".indiatimes.com/": 3731,
      "_en": 3732,
      "▁[\"National": 3733,
      "osed": 3734,
      "AsherTalbot2008": 3735,
      "▁February": 3736,
      "](https://doi.org/10.": 3737,
      "ligious": 3738,
      "▁sp": 3739,
      "▁Times": 3740,
      "▁2003": 3741,
      "पे": 3742,
      "मंत्र": 3743,
      "रवरी": 3744,
      "ल्": 3745,
      "िज़": 3746,
      "ेट": 3747,
      "▁[इ": 3748,
      "▁[पु": 3749,
      "▁\"इ": 3750,
      "▁\"हिन्द": 3751,
      "▁मु": 3752,
      "olk": 3753,
      "विज्ञान": 3754,
      "ाला": 3755,
      "]](https://hi.wikipedia.org/api/rest_v1/page/html/भारत#cite_note-1": 3756,
      "ड़े": 3757,
      "▁उत्तर": 3758,
      "द्यान": 3759,
      "र्थिक": 3760,
      "▁समय": 3761,
      "यालय": 3762,
      "▁[↑](https://hi.wikipedia.org/api/rest_v1/page/html/भारत#cite_ref-1": 3763,
      "7-0": 3764,
      "2015": 3765,
      "8+": 3766,
      "por": 3767,
      "riod": 3768,
      "▁tradition": 3769,
      "▁became": 3770,
      "4–": 3771,
      "abad": 3772,
      "▁Union": 3773,
      "Wikipedia": 3774,
      "-world": 3775,
      "▁up": 3776,
      "1950": 3777,
      "▁two": 3778,
      "▁Pe": 3779,
      "▁It": 3780,
      "sha": 3781,
      "JP": 3782,
      "ze": 3783,
      "గర": 3784,
      "టక": 3785,
      "టా": 3786,
      "దార": 3787,
      "నీ": 3788,
      "రో": 3789,
      "సభ": 3790,
      "ెద్ద": 3791,
      "▁\"సి": 3792,
      "](https://te.wikipedia.org/api/rest_v1/page/html/భారత_": 3793,
      "▁పు": 3794,
      "▁13": 3795,
      "217": 3796,
      "రాజ్య": 3797,
      "▁కేంద్రపాలిత": 3798,
      "▁మా": 3799,
      "▁చే": 3800,
      "ము\")": 3801,
      "త్స": 3802,
      "▁రాజ్య": 3803,
      "వాతంత్ర": 3804,
      "▁దేశాల": 3805,
      "లాదేశ్": 3806,
      "స్తు": 3807,
      "▁సామ్రాజ్యం](https://te.wikipedia.org/api/rest_v1/page/html/": 3808,
      "ంగ్లాదేశ్": 3809,
      "▁భాషలు": 3810,
      "ారు.": 3811,
      "_ప్రా": 3812,
      "్రిటి": 3813,
      "▁అధికార": 3814,
      "ూర్పు": 3815,
      "కైవు": 3816,
      "IA": 3817,
      "a-": 3818,
      "app": 3819,
      "andard": 3820,
      "▁2004": 3821,
      "india-glance": 3822,
      "99": 3823,
      "▁6.": 3824,
      "▁India.": 3825,
      "s=": 3826,
      "orce": 3827,
      "adi": 3828,
      "ar,": 3829,
      "▁Plate": 3830,
      "4).": 3831,
      "▁2019.": 3832,
      "TR": 3833,
      "y-": 3834,
      "▁*The": 3835,
      "ujarat": 3836,
      "1–": 3837,
      "rief": 3838,
      "_population": 3839,
      "-15": 3840,
      "urc": 3841,
      "IB": 3842,
      "डी": 3843,
      "डु": 3844,
      "णि": 3845,
      "धु": 3846,
      "लोक": 3847,
      "▁छ": 3848,
      "▁\"न": 3849,
      "▁\"सं": 3850,
      "▁मा": 3851,
      "नाव": 3852,
      "▁द्वार": 3853,
      "▁Economic": 3854,
      "माज": 3855,
      "ी](https://hi.wikipedia.org/api/rest_v1/page/html/अ": 3856,
      "सेना": 3857,
      "▁चु": 3858,
      "▁हुई": 3859,
      "शासित": 3860,
      "त्पाद": 3861,
      ",[[": 3862,
      "-40": 3863,
      "1]](https://en.wikipedia.org/api/rest_v1/page/html/India#cite_note-FOOTNOTE": 3864,
      "her": 3865,
      "▁ro": 3866,
      "▁general": 3867,
      "ata_": 3868,
      "▁summit\")": 3869,
      "1997": 3870,
      "▁\"Economy": 3871,
      "South_Asian": 3872,
      ".b": 3873,
      "a.": 3874,
      "nam": 3875,
      "7,": 3876,
      "sing": 3877,
      "loy": 3878,
      "rits": 3879,
      "ele": 3880,
      "▁original](https://": 3881,
      "▁*[The": 3882,
      "2nd": 3883,
      "\\_par": 3884,
      "ameters": 3885,
      "\\_parameters": 3886,
      "\\_parameters#": 3887,
      "az": 3888,
      "▁\"U": 3889,
      "tionary": 3890,
      "▁2021.": 3891,
      ",NGDP": 3892,
      "▁[978-0-": 3893,
      "ara": 3894,
      "▁Assembly": 3895,
      "ered": 3896,
      "-largest": 3897,
      "inguistic": 3898,
      "-3)": 3899,
      "be": 3900,
      "%E0%B": 3901,
      "vat": 3902,
      "vid": 3903,
      "▁group": 3904,
      "IMF": 3905,
      "▁Fund": 3906,
      "▁[*India": 3907,
      "▁capita": 3908,
      "2).": 3909,
      "Hindu": 3910,
      "iz": 3911,
      "ayback": 3912,
      "avy": 3913,
      "▁[doi": 3914,
      "](https://en.wikipedia.org/api/rest_v1/page/html/W": 3915,
      "](https://en.wikipedia.org/api/rest_v1/page/html/The": 3916,
      "▁caste": 3917,
      "chool": 3918,
      "▁27": 3919,
      "▁BRICS": 3920,
      "_(India)": 3921,
      "▁east": 3922,
      "oreign": 3923,
      "▁Press](https://en.wikipedia.org/api/rest_v1/page/html/": 3924,
      "▁\"Doi": 3925,
      "](https://en.wikipedia.org/api/rest_v1/page/html/Doi": 3926,
      "▁(identifier)\"):[10.": 3927,
      "▁[doi](https://en.wikipedia.org/api/rest_v1/page/html/Doi": 3928,
      "▁[doi](https://en.wikipedia.org/api/rest_v1/page/html/Doi_(identifier)": 3929,
      "▁found": 3930,
      "▁Portal": 3931,
      "_Centre": 3932,
      "_ब": 3933,
      "dr": 3934,
      "ईसा": 3935,
      "कल": 3936,
      "खाना": 3937,
      "तु": 3938,
      "नगर": 3939,
      "ोम": 3940,
      "।\n": 3941,
      "▁ऊ": 3942,
      "](https://hi.wikipedia.org/api/rest_v1/page/html/इ": 3943,
      "▁सु": 3944,
      "र्दू": 3945,
      "▁अग": 3946,
      "▁दिया": 3947,
      "▁बढ़": 3948,
      "राष्ट्रपति": 3949,
      "हिन्दी": 3950,
      "्रां": 3951,
      "▁हुआ": 3952,
      "हासागर": 3953,
      "फ़रवरी": 3954,
      "ष्ण": 3955,
      "ंबई": 3956,
      "▁लिए": 3957,
      "▁विकास": 3958,
      "8-0)": 3959,
      "2016": 3960,
      "achin": 3961,
      "ticles": 3962,
      "hindi": 3963,
      "ంజా": 3964,
      "గి": 3965,
      "టీ": 3966,
      "టాన్": 3967,
      "మంత్రి": 3968,
      "లను": 3969,
      "వె": 3970,
      "వరణ": 3971,
      "హదార": 3972,
      "ూచ": 3973,
      "▁హ": 3974,
      "▁భారతదేశ": 3975,
      "్రమ": 3976,
      "196": 3977,
      "భారతదేశ_": 3978,
      "▁కొ": 3979,
      "▁Bank": 3980,
      "▁వ్యా": 3981,
      "▁మత": 3982,
      "▁మతము": 3983,
      "తావరణ": 3984,
      "నాడు": 3985,
      "▁ఉంది.": 3986,
      "▁ఇతర": 3987,
      "ాయి": 3988,
      "ణాసియా": 3989,
      "టెడ్": 3990,
      "▁ఆర్కైవు": 3991,
      "▁రైలు": 3992,
      "భూటాన్": 3993,
      "_సామ్రాజ్యం": 3994,
      "వాతంత్ర్య": 3995,
      "oast": 3996,
      "uslim": 3997,
      "document": 3998,
      "127": 3999,
      "2022": 4000,
      "119": 4001,
      "6-0)": 4002,
      "LA": 4003,
      "8–": 4004,
      "dia/": 4005,
      "reme": 4006,
      "\");": 4007,
      "aksh": 4008,
      "hai": 4009,
      "india.gov.in/kno": 4010,
      "trol": 4011,
      "windia/": 4012,
      "india.gov.in/knowindia/": 4013,
      "7/": 4014,
      "pur": 4015,
      "-28": 4016,
      "C).": 4017,
      "2017": 4018,
      "▁Sanskrit": 4019,
      "▁2013": 4020,
      "shing": 4021,
      "26)": 4022,
      "imalay": 4023,
      "under": 4024,
      "ublishing": 4025,
      "▁period": 4026,
      "BC": 4027,
      "6%": 4028,
      "6/": 4029,
      "▁29": 4030,
      "_Indian_": 4031,
      "▁than": 4032,
      "II": 4033,
      "_11": 4034,
      "omas": 4035,
      "Craven": 4036,
      "can": 4037,
      "if": 4038,
      "lations": 4039,
      "s_of_India": 4040,
      "slam": 4041,
      "y\")": 4042,
      "▁j": 4043,
      "▁ref": 4044,
      "▁ra": 4045,
      "dian": 4046,
      "al_P": 4047,
      "](https://en.wikipedia.org/api/rest_v1/page/html/I": 4048,
      "▁sup": 4049,
      "▁modern": 4050,
      "▁million": 4051,
      "rahm": 4052,
      "▁war": 4053,
      "▁total": 4054,
      "▁one": 4055,
      "▁deve": 4056,
      "ultan": 4057,
      "anges": 4058,
      "978-0-19-9": 4059,
      "ovember": 4060,
      "syayan": 4061,
      "ainting": 4062,
      "_Island": 4063,
      "ast_Asia": 4064,
      "ricket": 4065,
      "hitecture": 4066,
      "Craven1997": 4067,
      "%)": 4068,
      "7-0)": 4069,
      "_dom": 4070,
      "vest": 4071,
      "_14": 4072,
      "economy": 4073,
      "%2C_": 4074,
      "5–": 4075,
      "_ಚ": 4076,
      "_ಧರ್ಮ": 4077,
      "_ಪ್ರದೇಶ": 4078,
      "ಂ](https://kn.wikipedia.org/api/rest_v1/page/html/": 4079,
      "ಂಗಳ": 4080,
      "ಅಸ್": 4081,
      "ಉತ್ತ": 4082,
      "ಕಡ": 4083,
      "ಗಢ": 4084,
      "ಚಲ": 4085,
      "ಜರಾ": 4086,
      "ಟ್": 4087,
      "ಡು": 4088,
      "ತ್": 4089,
      "ತಮಿ": 4090,
      "ದ್ರಾ": 4091,
      "ಮಾ": 4092,
      "ಮನ್": 4093,
      "ರತ": 4094,
      "ರೀ": 4095,
      "ರ್ಯ": 4096,
      "ಲಸ": 4097,
      "ವರ": 4098,
      "ವ್": 4099,
      "ಶ್ವ": 4100,
      "ಶ್ಮ": 4101,
      "ಹಿ": 4102,
      "ಹಿಮ": 4103,
      "ಿಹ": 4104,
      "ೈಸ್ತ": 4105,
      "ೋಕ್": 4106,
      "೦೯": 4107,
      "▁ಗ": 4108,
      "▁[ಕ": 4109,
      "▁[ಭಾರತ": 4110,
      "▁\"ಕ": 4111,
      "rim": 4112,
      "](https://kn.wikipedia.org/api/rest_v1/page/html/ಕ": 4113,
      "ಾರು": 4114,
      "ಲಿಗ್ರಾ": 4115,
      "▁ಸಾರ್ವತ್ರಿಕ": 4116,
      "▁ಮನ": 4117,
      "▁ಮೊ": 4118,
      "▁ಮಿಲಿ": 4119,
      "▁ಮೆಷಿನ್": 4120,
      "ಂದು": 4121,
      "ಲ್ಲ": 4122,
      "▁ವಲಸ": 4123,
      "ರಿವ": 4124,
      "ರಿಯಾ": 4125,
      "▁ಅಧಿಕೃತ": 4126,
      "▁ಬಿ": 4127,
      "▁ಬ್ರಿ": 4128,
      "](https://kn.wikipedia.org/api/rest_v1/page/html/ಭಾರತ#cite_ref-": 4129,
      "▁ಪ್ರಪಂ": 4130,
      "ಿತ್ರ": 4131,
      "ಿಯಲ್ಲಿ": 4132,
      "ನೇಪಾ": 4133,
      "▁ಇತಿಹಾಸ": 4134,
      "▁ಸಂಸ್ಥೆ": 4135,
      "ರಾಜ್ಯಸಭೆ": 4136,
      ".nic.in/)\n": 4137,
      "ಮುಂಬ": 4138,
      "]](https://kn.wikipedia.org/api/rest_v1/page/html/ಭಾರತ#cite_note-1": 4139,
      "ಗಣತಿ": 4140,
      "ಣಿಪು": 4141,
      "▁ಧರ್ಮ\")": 4142,
      "೨೦೦೯": 4143,
      "▁ಭಾಷೆಗಳು": 4144,
      "▁[↑](https://kn.wikipedia.org/api/rest_v1/page/html/ಭಾರತ#cite_ref-1": 4145,
      "ಯುಕ್ತ": 4146,
      "▁ಮುಖ್ಯ": 4147,
      "ತೆಲ": 4148,
      "▁ಲಕ್ಷ": 4149,
      "ಗುಜರಾ": 4150,
      "ಟೆಲಿಗ್ರಾ": 4151,
      "ಪಂಜಾ": 4152,
      "ಭೂಮಿ": 4153,
      "▁ಸಿರಿವ": 4154,
      "▁ನಗರ": 4155,
      "▁ಹೆಸರು": 4156,
      "೨೦೧೪": 4157,
      "ಕ್ರೈಸ್ತ": 4158,
      "▁ಸ್ಥಾನ": 4159,
      "ಲೋಕಸಭೆ": 4160,
      "ಂಗಳೂ": 4161,
      "ಅಸ್ಸಾ": 4162,
      "ಶ್ಮೀ": 4163,
      "▁ವಲಸೆ": 4164,
      "▁ಪ್ರಪಂಚ": 4165,
      "vol": 4166,
      "errit": 4167,
      "▁2.": 4168,
      ".aspx": 4169,
      "क्स": 4170,
      "न](https://hi.wikipedia.org/api/rest_v1/page/html/": 4171,
      "योग": 4172,
      "वै": 4173,
      "स्ट": 4174,
      "ूर्": 4175,
      "ृति": 4176,
      "▁[आ": 4177,
      "▁[ज": 4178,
      "▁\"आ": 4179,
      "ारी": 4180,
      "ार्च": 4181,
      "etail": 4182,
      "umeration": 4183,
      "िक्": 4184,
      "▁जून": 4185,
      "▁दे": 4186,
      "▁दिस": 4187,
      "राजस्थान": 4188,
      "नेपाल": 4189,
      "त्तरा": 4190,
      "जाति": 4191,
      "▁क्षेत्र\")": 4192,
      "धानमंत्र": 4193,
      "्रीका": 4194,
      "गणना": 4195,
      "▁खाना\")": 4196,
      "▁निर्": 4197,
      "माणु": 4198,
      "म्मू": 4199,
      "▁दिसम्बर": 4200,
      "ao": 4201,
      "m.nic.in/": 4202,
      "ncl": 4203,
      "teen": 4204,
      "▁(eds.": 4205,
      "▁states": 4206,
      "usiness": 4207,
      "nclm.nic.in/": 4208,
      ":**": 4209,
      "educ": 4210,
      "▁Min": 4211,
      "24)": 4212,
      "CS1\\_": 4213,
      "education": 4214,
      "/auth": 4215,
      "▁[\"A": 4216,
      "inistry_of_": 4217,
      "▁India\"": 4218,
      "▁Con": 4219,
      "-78": 4220,
      "Pakistan": 4221,
      "rd": 4222,
      "ung": 4223,
      "duction": 4224,
      "cond": 4225,
      "▁northern": 4226,
      "1990": 4227,
      "▁War": 4228,
      "▁[*The": 4229,
      "India.pdf)": 4230,
      "-14": 4231,
      "ammu": 4232,
      "2]](https://en.wikipedia.org/api/rest_v1/page/html/India#cite_note-FOOTNOTE": 4233,
      "Main": 4234,
      "ahar": 4235,
      "ras": 4236,
      "▁am": 4237,
      "▁emp": 4238,
      "reat": 4239,
      "▁[m": 4240,
      "▁classical": 4241,
      "▁such": 4242,
      "ussia": 4243,
      "▁large": 4244,
      "▁later": 4245,
      "a](https://en.wikipedia.org/api/rest_v1/page/html/C": 4246,
      "▁cont": 4247,
      "▁\"Special:BookSources/978-0-": 4248,
      "](https://en.wikipedia.org/api/rest_v1/page/html/Special:BookSources/978-0-": 4249,
      "india.gov.in/india-glance": 4250,
      "_BRICS": 4251,
      "athak": 4252,
      "-lord": 4253,
      "ommonwealth": 4254,
      "ehru": 4255,
      "vatsyayan": 4256,
      "vatsyayan-lord": 4257,
      ".htm": 4258,
      "9,": 4259,
      "ensi": 4260,
      "atus": 4261,
      "▁11": 4262,
      "cean": 4263,
      "National_In": 4264,
      "s/p": 4265,
      "gni": 4266,
      "wal": 4267,
      "tex": 4268,
      "theast": 4269,
      "engali": 4270,
      "978-0-521-80": 4271,
      "jection": 4272,
      "KulkeRothermund2004": 4273,
      "904-7": 4274,
      "Articles": 4275,
      "978-0-521-80904-7": 4276,
      "-on-": 4277,
      "23)": 4278,
      "chin": 4279,
      "129": 4280,
      "219": 4281,
      "ంశ": 4282,
      "ఆర్": 4283,
      "ఉత్తర": 4284,
      "ఒడి": 4285,
      "కీయ": 4286,
      "గలు": 4287,
      "చు": 4288,
      "జరా": 4289,
      "తూర్పు": 4290,
      "భు": 4291,
      "మన్": 4292,
      "యి": 4293,
      "లస": 4294,
      "ీన": 4295,
      "ేక": 4296,
      "▁డ": 4297,
      "▁జాబితా": 4298,
      "▁[భారతదేశ": 4299,
      "▁(*": 4300,
      "▁పట్ట": 4301,
      "ర్\")": 4302,
      "▁**జాతీయ": 4303,
      "నిక": 4304,
      "ంగ్రె": 4305,
      "▁సభ": 4306,
      "తాబ్": 4307,
      "▁ప్రపంచ": 4308,
      "▁ప్రభు": 4309,
      "▁ఆసియా": 4310,
      "మ్రాజ్య": 4311,
      "గుజరా": 4312,
      "▁సామ్రాజ్యం\")": 4313,
      "త్యేక": 4314,
      "రాష్ట్రపతి": 4315,
      "ప్ప": 4316,
      "▁కాశ్మీ": 4317,
      "▁రాజవంశం": 4318,
      "▁చెంద": 4319,
      "▁ఆర్ధిక": 4320,
      "%20%20%20%20": 4321,
      "▁స్థాన": 4322,
      "తమిళనాడు": 4323,
      "ప్రధానమంత్రి": 4324,
      "గణతంత్ర": 4325,
      "▁క్రీడ": 4326,
      "▁ఉన్నాయి.": 4327,
      "ఆఫ్ఘ": 4328,
      "శ్రీలంక": 4329,
      "షియా": 4330,
      "న్‌ఫ": 4331,
      "నేపాల్": 4332,
      "తాబ్ద": 4333,
      "ealth": 4334,
      "akh": 4335,
      "ankar": 4336,
      "alore": 4337,
      "angalore": 4338,
      "otal": 4339,
      "cript": 4340,
      "erritory": 4341,
      "_प": 4342,
      "टी": 4343,
      "द्वीप": 4344,
      "वी": 4345,
      "हीं": 4346,
      "िन्": 4347,
      "ैल": 4348,
      "ैंड": 4349,
      "▁फ़रवरी": 4350,
      "](https://hi.wikipedia.org/api/rest_v1/page/html/सं": 4351,
      "▁मार्च": 4352,
      "्यता": 4353,
      "▁पह": 4354,
      "▁पार्ट": 4355,
      "र्स": 4356,
      "र्जा": 4357,
      "](https://hi.wikipedia.org/api/rest_v1/page/html/भारतीय": 4358,
      "त्रि": 4359,
      "▁बना": 4360,
      "▁वा": 4361,
      "▁संविधान": 4362,
      "र्वत": 4363,
      "ंडिया": 4364,
      "पात": 4365,
      "ंग्रेस": 4366,
      "resent": 4367,
      "स्कृति": 4368,
      "▁हिन्दी": 4369,
      "▁शासन": 4370,
      "▁थी": 4371,
      "वेबैक": 4372,
      "▁द्वारा": 4373,
      "4,": 4374,
      "page": 4375,
      "▁50": 4376,
      "orical": 4377,
      "▁(1,": 4378,
      "ould": 4379,
      "rovision": 4380,
      "26.": 4381,
      "1162": 4382,
      "_New": 4383,
      "▁State": 4384,
      "do-A": 4385,
      "▁union": 4386,
      "-0)\n": 4387,
      "94": 4388,
      "Template:": 4389,
      "ia\")": 4390,
      "tat": 4391,
      "▁vi": 4392,
      "oordin": 4393,
      "versal": 4394,
      "ikh": 4395,
      "▁Environment": 4396,
      "cted": 4397,
      "fl": 4398,
      "ner": 4399,
      "war": 4400,
      "arly": 4401,
      "atak": 4402,
      "▁mathe": 4403,
      "chedu": 4404,
      "olle": 4405,
      "Spear": 4406,
      "s](https://en.wikipedia.org/api/rest_v1/page/html/M": 4407,
      "s](https://en.wikipedia.org/api/rest_v1/page/html/List_of_": 4408,
      "owland": 4409,
      "-108": 4410,
      "-107-1": 4411,
      "conomy_of_": 4412,
      "limate": 4413,
      "ynast": 4414,
      "▁2018](https://en.wikipedia.org/api/rest_v1/page/html/India#CITEREF": 4415,
      "rowth": 4416,
      "978-0-19-88": 4417,
      "Harle1994": 4418,
      "Qu": 4419,
      "formatics_Centre": 4420,
      "National_Informatics_Centre": 4421,
      "unknown": 4422,
      "▁Modern": 4423,
      "53": 4424,
      "lor": 4425,
      "rg": 4426,
      "▁(nominal)": 4427,
      "▁Pakistan": 4428,
      "...": 4429,
      "MetcalfMetcalf2006),": 4430,
      "8+5": 4431,
      "bank": 4432,
      "\")[[": 4433,
      "▁[\"C": 4434,
      "ym": 4435,
      "sources": 4436,
      "32": 4437,
      "54": 4438,
      "state": 4439,
      "cia": 4440,
      "▁power": 4441,
      ".fr": 4442,
      "rial": 4443,
      "▁British": 4444,
      "▁K.": 4445,
      "ffe": 4446,
      "oot": 4447,
      "▁Programme": 4448,
      "aus": 4449,
      "asia": 4450,
      "2021": 4451,
      "▁comm": 4452,
      "▁Ac": 4453,
      "hanghai": 4454,
      "ump": 4455,
      "109": 4456,
      "▁Registrar": 4457,
      "2–": 4458,
      "_V": 4459,
      "yan": 4460,
      "▁under": 4461,
      "west": 4462,
      "rown": 4463,
      "](https://web.archive.org/web/200": 4464,
      "ervation": 4465,
      "▁(2018": 4466,
      "etra": 4467,
      "Pages\\_using\\_infobox": 4468,
      "\\_country\\_with\\_": 4469,
      ".IN": 4470,
      "ving": 4471,
      "24.": 4472,
      "▁[\"India": 4473,
      "WEO.IN": 4474,
      "IMFWEO.IN": 4475,
      "oordinated": 4476,
      "-25": 4477,
      "Ludden": 4478,
      "_न": 4479,
      "eld": 4480,
      "खंड": 4481,
      "खण्ड": 4482,
      "गोल": 4483,
      "धि": 4484,
      "रू": 4485,
      "व्यवस्था": 4486,
      "शीन": 4487,
      "ां": 4488,
      "ुंबई": 4489,
      "ौर": 4490,
      "ौद्ध": 4491,
      "ौद्योगिक": 4492,
      "▁या": 4493,
      "्रम": 4494,
      "▁संग": 4495,
      "▁मैदान": 4496,
      "ulti": 4497,
      "▁अरब": 4498,
      "नाडु": 4499,
      "▁जल": 4500,
      "▁दर": 4501,
      "▁प्रति": 4502,
      "ताब्": 4503,
      "स्त्र": 4504,
      "पुरी": 4505,
      "](https://hi.wikipedia.org/api/rest_v1/page/html/भारत#cite_ref-FOOTNOTE": 4506,
      "▁इतिहास": 4507,
      "▁हैं,": 4508,
      "पर्यटन": 4509,
      "किम": 4510,
      "MetcalfMetcalf201": 4511,
      "दीव": 4512,
      "▁इसके": 4513,
      "रेल": 4514,
      "पालिका": 4515,
      "▁घाट": 4516,
      "▁सिनेमा": 4517,
      "िक्षा": 4518,
      "िक्किम": 4519,
      "Dikshit": 4520,
      "European": 4521,
      "Schwartzberg": 4522,
      "cent": 4523,
      "cul": 4524,
      "ia](https://en.wikipedia.org/api/rest_v1/page/html/": 4525,
      "s_in_India": 4526,
      "ual": 4527,
      "read": 4528,
      "▁[p": 4529,
      "▁\"V": 4530,
      "inance": 4531,
      "arna": 4532,
      "esearch": 4533,
      "▁industry": 4534,
      "ingdom": 4535,
      "▁sh": 4536,
      "▁many": 4537,
      "rative": 4538,
      "▁economic": 4539,
      "▁religion": 4540,
      "utra": 4541,
      "estern": 4542,
      "▁people": 4543,
      "▁left": 4544,
      "dones": 4545,
      "▁rule": 4546,
      "▁(eds.).": 4547,
      "▁among": 4548,
      "DikshitSchwartzberg": 4549,
      "DikshitSchwartzberg2023": 4550,
      "6–": 4551,
      "oa": 4552,
      "rect": 4553,
      "mil": 4554,
      "osi": 4555,
      "arri": 4556,
      "List_of_countries_and_dependencies_by_population": 4557,
      "2020": 4558,
      "\\_(": 4559,
      "loc": 4560,
      "240": 4561,
      "c=0&": 4562,
      ".world": 4563,
      "Liter": 4564,
      "58": 4565,
      "_ప్రదేశ్": 4566,
      "ం,": 4567,
      "ఉప": 4568,
      "కొ": 4569,
      "కేంద్రపాలిత": 4570,
      "జె": 4571,
      "ఢ్": 4572,
      "ది.": 4573,
      "నాల": 4574,
      "లే": 4575,
      "ళు": 4576,
      "ౌద్ధ": 4577,
      "▁భా": 4578,
      "states": 4579,
      "▁[వి": 4580,
      "ాలీ": 4581,
      "ర్చ": 4582,
      "▁28.": 4583,
      "ాలు?action=edit&redlink=1": 4584,
      "–సా.శ.18": 4585,
      "▁అత్య": 4586,
      "▁ఆధ": 4587,
      "మాఖ్య": 4588,
      "వాణా": 4589,
      "ంటి": 4590,
      "orities": 4591,
      "▁దేశం": 4592,
      "డ్డ": 4593,
      "▁జనాభా": 4594,
      "దక్షిణాసియా": 4595,
      "▁గల": 4596,
      "▁భారతదేశంలో": 4597,
      "ంగ్లీ": 4598,
      "యునై": 4599,
      "ష్ణ": 4600,
      "_చరిత్ర?action=edit&redlink=1": 4601,
      "▁రాష్ట్రాలు,": 4602,
      "_మతము": 4603,
      "▁మొద": 4604,
      "▁చెయ్యబడింది.": 4605,
      "యునైటెడ్": 4606,
      "64": 4607,
      "af": 4608,
      "cms": 4609,
      "ser": 4610,
      "sts": 4611,
      "▁Ar": 4612,
      "agar": 4613,
      "▁1998": 4614,
      "lem": 4615,
      "-india": 4616,
      "▁out": 4617,
      "▁culture": 4618,
      "ety": 4619,
      "▁land": 4620,
      "ourn": 4621,
      "500": 4622,
      "_h": 4623,
      "d/": 4624,
      "local": 4625,
      "▁medi": 4626,
      "ront": 4627,
      "▁2019.\n": 4628,
      "_for": 4629,
      "▁[c": 4630,
      "rip": 4631,
      "▁CE": 4632,
      "▁some": 4633,
      "28.": 4634,
      "▁[4": 4635,
      "ublication": 4636,
      "3]](https://en.wikipedia.org/api/rest_v1/page/html/India#cite_note-FOOTNOTE": 4637,
      "422": 4638,
      "jan": 4639,
      "▁em": 4640,
      "pee": 4641,
      "▁\"India": 4642,
      "ond": 4643,
      "](https://en.wikipedia.org/api/rest_v1/page/html/Indian_": 4644,
      "▁inclu": 4645,
      "▁Arab": 4646,
      "▁Afric": 4647,
      "=1&": 4648,
      "_Summit": 4649,
      "ineering": 4650,
      "arket": 4651,
      "_in_South_Asia": 4652,
      "ast_Asia_Summit": 4653,
      "ollege": 4654,
      "\"[[": 4655,
      "▁Cooperation": 4656,
      "003": 4657,
      "/g": 4658,
      "▁Republic": 4659,
      "ite": 4660,
      "pper": 4661,
      "rdu": 4662,
      "रण": 4663,
      "लिस": 4664,
      "वार": 4665,
      "वीं": 4666,
      "शक": 4667,
      "स](https://hi.wikipedia.org/api/rest_v1/page/html/": 4668,
      "सभा": 4669,
      "ाप": 4670,
      "ांध": 4671,
      "ोष": 4672,
      "०१": 4673,
      "▁ध": 4674,
      "▁\"19": 4675,
      "राठ": 4676,
      "्ता:": 4677,
      "▁दृ": 4678,
      "▁दो": 4679,
      "▁प्रमुख": 4680,
      "118": 4681,
      "ews18": 4682,
      "▁शु": 4683,
      "%20A": 4684,
      "िये": 4685,
      "▁रह": 4686,
      "▁लग": 4687,
      "ृत्य": 4688,
      "तेलु": 4689,
      "ूनिव": 4690,
      "ूरो": 4691,
      "](https://hi.wikipedia.org/api/rest_v1/page/html/भारत_की_": 4692,
      "](https://hi.wikipedia.org/api/rest_v1/page/html/भारत_का_": 4693,
      "_संघ": 4694,
      "▁युद्ध": 4695,
      "▁न्यायालय": 4696,
      "धिकारिक": 4697,
      "▁[पुरालेखित": 4698,
      "▁अगस्त": 4699,
      "धानमंत्री": 4700,
      "545": 4701,
      "atab": 4702,
      "type": 4703,
      "ribution": 4704,
      "▁mi": 4705,
      "llchin": 4706,
      "DS": 4707,
      "▁\"[": 4708,
      "ictionary": 4709,
      "▁top": 4710,
      "9-0)": 4711,
      "93,": 4712,
      "_15": 4713,
      "ii": 4714,
      "ls": 4715,
      "stru": 4716,
      "_Sh": 4717,
      "▁[Asher": 4718,
      "▁Kashmir": 4719,
      "meric": 4720,
      "business/": 4721,
      "vert": 4722,
      "def": 4723,
      "▁economy": 4724,
      "-90": 4725,
      ":India": 4726,
      "▁\"National": 4727,
      "▁Al": 4728,
      "▁Act,": 4729,
      "->": 4730,
      ".ಎ": 4731,
      "_ಬ": 4732,
      "_ಸಂ": 4733,
      "ae": 4734,
      "ಂಪ": 4735,
      "ಇಂಡ": 4736,
      "ಘಟ": 4737,
      "ಧಿ": 4738,
      "ಪಾರ": 4739,
      "ರೇಂದ್ರ": 4740,
      "ವು": 4741,
      "ವರಿ": 4742,
      "ವನ್ನು": 4743,
      "ಾಂಗ್": 4744,
      "ೆ.": 4745,
      "ೊಡ್": 4746,
      "ೋದಿ": 4747,
      "್‌": 4748,
      "್ನೆ": 4749,
      "೨]](https://kn.wikipedia.org/api/rest_v1/page/html/ಭಾರತ#cite_note-": 4750,
      "▁ಜ": 4751,
      "▁೨": 4752,
      "▁ಗಣರಾಜ್ಯ": 4753,
      "▁ರಾಜ": 4754,
      "▁[ಹಿಂದೂ": 4755,
      "▁\"ನ": 4756,
      "▁\"ಭಾರತ": 4757,
      "▁\"ಹಿಂದೂ": 4758,
      "th](https://kn.wikipedia.org/api/rest_v1/page/html/": 4759,
      "](https://kn.wikipedia.org/api/rest_v1/page/html/ಹಿಂದೂ": 4760,
      "್ರೀ": 4761,
      "ಲಿಮ್": 4762,
      "▁ಪು": 4763,
      "▁ಪ್ರಾ": 4764,
      "ಗಳನ್ನು": 4765,
      "ತ್ತಿ": 4766,
      "ಸ್ಲಿಮ್": 4767,
      "▁ಹಾಗ": 4768,
      "ಕ್ಕಿ": 4769,
      "▁ಕಾ": 4770,
      "▁ಕೆ": 4771,
      "▁ಕ್ರಿ": 4772,
      "▁ವಾ": 4773,
      "▁ನದಿ": 4774,
      "ರಿಂದ": 4775,
      "ಸಂಸ": 4776,
      "ಸಂಯುಕ್ತ": 4777,
      "ಾಗರೀ": 4778,
      "ಸಿದ": 4779,
      "್ರಾಡಳಿತ": 4780,
      "್ಯಾಪಾರ": 4781,
      "ರಾಷ್ಟ್ರಪತಿ": 4782,
      "▁ಆಡಳಿತ": 4783,
      "ಿಯಿಂದ": 4784,
      "ವಿರ": 4785,
      "ದ್ದ": 4786,
      "ಮುಖ್ಯ": 4787,
      "ರೆಗೆ": 4788,
      "▁ಎಂಬ": 4789,
      "▁ಎನ್.": 4790,
      "▁ಸಾವಿರ": 4791,
      "▁ಉಪ": 4792,
      "▁ಕೋಟ": 4793,
      "ವೆ.": 4794,
      "ೇಂದ್ರಾಡಳಿತ": 4795,
      "▁ವಿಭ": 4796,
      "ಗಿನ": 4797,
      "ಲಾದೇಶ": 4798,
      "ಹಾರಾ": 4799,
      "rishn": 4800,
      "▁ರಾಜ್ಯಗಳು": 4801,
      "](https://kn.wikipedia.org/api/rest_v1/page/html/ಚಿತ್ರ": 4802,
      "▁%),": 4803,
      "ಲ್ತ್‌": 4804,
      "▁ಶತಮಾನ": 4805,
      "ಳುವಳಿ": 4806,
      "ಿಹ್ನೆ": 4807,
      "▁ಮೊದ": 4808,
      "ಂಗಳೂರು": 4809,
      "ಘಟನೆ": 4810,
      "ಾಂಗ್ಲಾದೇಶ": 4811,
      "ೊಡ್ಡ": 4812,
      "▁ಹಾಗೂ": 4813,
      "ಾಗರೀಕ": 4814,
      "▁ಎನ್.ಡಿ": 4815,
      "6).": 4816,
      "_13": 4817,
      "ose": 4818,
      "press": 4819,
      "rain": 4820,
      "ummer": 4821,
      "▁territory": 4822,
      "/population": 4823,
      "anthem": 4824,
      "170": 4825,
      ".svg/": 4826,
      "▁[V": 4827,
      "enni": 4828,
      "lia": 4829,
      ".gov.in": 4830,
      "union_territ": 4831,
      "ration": 4832,
      "\\_articles": 4833,
      "6]](https://en.wikipedia.org/api/rest_v1/page/html/India#cite_note-": 4834,
      "fgh": 4835,
      "▁he": 4836,
      "▁article": 4837,
      "oral": 4838,
      "pen": 4839,
      "▁\"Oxford": 4840,
      "omin": 4841,
      "sis": 4842,
      "▁social": 4843,
      "▁maj": 4844,
      "istan": 4845,
      "urton": 4846,
      "▁Nadu": 4847,
      "Special:EditPage/": 4848,
      "▁rep": 4849,
      "-317": 4850,
      "ainism": 4851,
      "2905": 4852,
      "logo": 4853,
      "induism": 4854,
      "overe": 4855,
      "ility": 4856,
      "dependence": 4857,
      "arnatak": 4858,
      "-780": 4859,
      "1162-2": 4860,
      "Spear1990": 4861,
      "-107-11162-2": 4862,
      "978-0-19-882905": 4863,
      "fghan": 4864,
      "Special:EditPage/Template:": 4865,
      "978-0-19-882905-8": 4866,
      ".html)": 4867,
      "artment": 4868,
      "National_Informatics_Centre2005": 4869,
      "hdr": 4870,
      "ingham": 4871,
      "yle": 4872,
      "▁...": 4873,
      "search": 4874,
      "ohn": 4875,
      "utes": 4876,
      "3/": 4877,
      "pp": 4878,
      "▁Time": 4879,
      "▁disp": 4880,
      "ject": 4881,
      "-language\\_sources": 4882,
      "ensity": 4883,
      "-language\\_sources\\_(": 4884,
      "detail": 4885,
      "\\_template": 4886,
      "▁[\"G": 4887,
      "-प": 4888,
      "_अ": 4889,
      "_ए": 4890,
      "day": 4891,
      "ंका": 4892,
      "कट": 4893,
      "गंगा": 4894,
      "देव": 4895,
      "भो": 4896,
      "मेर": 4897,
      "ल](https://hi.wikipedia.org/api/rest_v1/page/html/": 4898,
      "लंका": 4899,
      "हैद": 4900,
      "िला": 4901,
      "ीमा": 4902,
      "ूह": 4903,
      "्म": 4904,
      "▁[ओ": 4905,
      "▁\"ओ": 4906,
      "](https://hi.wikipedia.org/api/rest_v1/page/html/आ": 4907,
      "atter": 4908,
      "राबाद": 4909,
      "▁since": 4910,
      "ाने": 4911,
      "र्ना": 4912,
      "▁अप्र": 4913,
      "▁R.": 4914,
      "▁Raj": 4915,
      "▁28": 4916,
      "_का_": 4917,
      "▁नी": 4918,
      "▁संबंध": 4919,
      "म्प": 4920,
      "हिमा": 4921,
      "त्तीस": 4922,
      "र्वो": 4923,
      "▁भाषाओं": 4924,
      "▁करने": 4925,
      "िरपे": 4926,
      "वायु": 4927,
      "ीपी": 4928,
      "▁मेला\")": 4929,
      "▁हुए": 4930,
      "▁used": 4931,
      "भीम": 4932,
      "िल्ली": 4933,
      "▁कार्य": 4934,
      "▁[हिन्दी](https://hi.wikipedia.org/api/rest_v1/page/html/": 4935,
      "teenth": 4936,
      "हैदराबाद": 4937,
      "र्नाटक": 4938,
      "िरपेक्ष": 4939,
      "17.": 4940,
      "aving": 4941,
      "qual": 4942,
      ":EditPage/": 4943,
      "_న": 4944,
      "ఖండ": 4945,
      "గం": 4946,
      "టిక": 4947,
      "డే": 4948,
      "ద్య": 4949,
      "మార్": 4950,
      "మాలయ": 4951,
      "లలో": 4952,
      "లకు": 4953,
      "ళ్": 4954,
      "వ](https://te.wikipedia.org/api/rest_v1/page/html/": 4955,
      "ానికి": 4956,
      "ాళు": 4957,
      "ీర్": 4958,
      "▁భ": 4959,
      "▁యు": 4960,
      "▁\"వి": 4961,
      "ాలో": 4962,
      "స్వ": 4963,
      "స్లా": 4964,
      "▁పాల": 4965,
      "న్\")": 4966,
      "▁కార": 4967,
      "▁కలి": 4968,
      "రిహ": 4969,
      "రికత": 4970,
      "క్నాల": 4971,
      "ంది.\n": 4972,
      "నిమా": 4973,
      "▁సంగీతం": 4974,
      "▁చి": 4975,
      "ులు\"),": 4976,
      "–సా.శ.13": 4977,
      "▁అయ": 4978,
      "▁ప్రధాన": 4979,
      "▁Official": 4980,
      "ప్రదాయ": 4981,
      "ప్రత్యేక": 4982,
      "ద్వీ": 4983,
      "▁ఉప": 4984,
      "▁రె": 4985,
      "న్నడ": 4986,
      "ంటు": 4987,
      "▁దేశంలో": 4988,
      "కాశ్మీ": 4989,
      "ంధు": 4990,
      "వర్గం:Harv": 4991,
      "ద్ధం": 4992,
      "ద్ధి": 4993,
      "ాల్దీవ": 4994,
      "చ్చే": 4995,
      "దక్షిణ_": 4996,
      "▁కాంగ్రె": 4997,
      "టెక్నాల": 4998,
      "హిమాలయ": 4999,
      "▁లే": 5000,
      "త్తరా": 5001,
      "నాగరికత": 5002,
      "క్కువ": 5003,
      "క్‌సభ": 5004,
      "▁శాస్త్ర": 5005,
      "ెలుగు": 5006,
      "▁వచ్చింది.": 5007,
      "_ప్రాంత": 5008,
      "ర్చ:": 5009,
      ":EditPage/మూస:": 5010,
      "ాళుక్య": 5011,
      "ప్రత్యేక:EditPage/మూస:": 5012,
      "టెక్నాలజీ": 5013,
      "\"](https://books.google.com/books?id=": 5014,
      "way": 5015,
      "▁history": 5016,
      "▁term": 5017,
      "▁[Oxford": 5018,
      "▁they": 5019,
      "_Delhi": 5020,
      "300": 5021,
      "▁cons": 5022,
      "ship": 5023,
      "Report": 5024,
      "eth": 5025,
      "economic": 5026,
      "ihar": 5027,
      "religion": 5028,
      "▁India*](https://books.google.com/books?id=": 5029,
      "▁23": 5030,
      "hindu": 5031,
      "/national-": 5032,
      "UCN": 5033,
      "iri": 5034,
      "owe": 5035,
      "sur": 5036,
      "▁ci": 5037,
      "▁oc": 5038,
      "▁[978-0": 5039,
      "](https://en.wikipedia.org/api/rest_v1/page/html/V": 5040,
      "▁there": 5041,
      "1970": 5042,
      "▁incre": 5043,
      "-12)": 5044,
      "▁SAARC": 5045,
      "▁both": 5046,
      "rote": 5047,
      "▁minister": 5048,
      "verse": 5049,
      "urban": 5050,
      "ilk": 5051,
      "▁largest": 5052,
      "ryan": 5053,
      "olitics": 5054,
      "▁\"Special:BookSources/978-0": 5055,
      "](https://en.wikipedia.org/api/rest_v1/page/html/Special:BookSources/978-0": 5056,
      "▁west": 5057,
      "riculture": 5058,
      "978-0-19-5": 5059,
      "](https://en.wikipedia.org/api/rest_v1/page/html/Economy_of_": 5060,
      "▁\"History": 5061,
      "symbols": 5062,
      "reek": 5063,
      "▁rate": 5064,
      "/cb": 5065,
      "ography": 5066,
      "](https://en.wikipedia.org/api/rest_v1/page/html/History": 5067,
      "arliamentary": 5068,
      "▁play": 5069,
      "▁world's": 5070,
      "▁2006](https://en.wikipedia.org/api/rest_v1/page/html/India#CITEREFMetcalfMetcalf2006),": 5071,
      "▁article:": 5072,
      "/national-symbols": 5073,
      "▁occ": 5074,
      "110": 5075,
      "▁2005": 5076,
      "25)": 5077,
      "11.": 5078,
      "_at_the": 5079,
      "/D": 5080,
      "▁[\"The": 5081,
      "857": 5082,
      "-22": 5083,
      "light": 5084,
      "asp": 5085,
      "▁Index": 5086,
      "▁Wiki": 5087,
      "1%": 5088,
      "5%": 5089,
      "▁z": 5090,
      "21.": 5091,
      "Ali": 5092,
      "-di": 5093,
      "ward": 5094,
      "▁gre": 5095,
      "--": 5096,
      "ning": 5097,
      "lect": 5098,
      "105": 5099,
      "3TR": 5100,
      "_Nations": 5101,
      "3TRt": 5102,
      "9).": 5103,
      "ंह": 5104,
      "झार": 5105,
      "डिया": 5106,
      "तट": 5107,
      "निक": 5108,
      "पान": 5109,
      "मालय": 5110,
      "हन": 5111,
      "हरी": 5112,
      "ाय": 5113,
      "िज": 5114,
      "िस्तान": 5115,
      "िहार": 5116,
      "▁ऑ": 5117,
      "▁राष्ट्र": 5118,
      "▁लेख": 5119,
      "▁[च": 5120,
      "ancy": 5121,
      "](https://hi.wikipedia.org/api/rest_v1/page/html/ओ": 5122,
      "▁कुल": 5123,
      "lis": 5124,
      "acy": 5125,
      "\\_or": 5126,
      "ett": 5127,
      "र्ष": 5128,
      "▁केन्द्र": 5129,
      "▁ही": 5130,
      "▁होत": 5131,
      "▁Pl": 5132,
      "ियां": 5133,
      "▁बन": 5134,
      "243": 5135,
      "▁नद": 5136,
      "▁नहीं": 5137,
      "▁से](http://": 5138,
      "▁वार": 5139,
      "▁north": 5140,
      "पुरा": 5141,
      "स्ला": 5142,
      "▁उद्यान": 5143,
      "▁है।[[": 5144,
      "▁शताब्": 5145,
      "▁रहा": 5146,
      "विशेष:EditPage/": 5147,
      "▁मेला](https://hi.wikipedia.org/api/rest_v1/page/html/": 5148,
      "श्चिमी": 5149,
      "गणराज्य": 5150,
      "ociety": 5151,
      "▁प्राप्त": 5152,
      "-of-india-": 5153,
      "▁स्रोत/978-1": 5154,
      "](https://hi.wikipedia.org/api/rest_v1/page/html/विशेष:पुस्तक_स्रोत/978-1": 5155,
      "formation": 5156,
      "▁भूम": 5157,
      "▁गणराज्य": 5158,
      "▁चुनाव": 5159,
      "रेलू": 5160,
      "▁[पुरालेखित](https://web.archive.org/web/201": 5161,
      "र्वोच्च": 5162,
      "विशेष:EditPage/साँचा:": 5163,
      "Web": 5164,
      "_per": 5165,
      "o.": 5166,
      "▁Monetary": 5167,
      "-level": 5168,
      "▁domestic": 5169,
      "urchas": 5170,
      "RL": 5171,
      "ate_": 5172,
      "nf": 5173,
      "254": 5174,
      "own": 5175,
      "_languages": 5176,
      "/article": 5177,
      "2),": 5178,
      "7_": 5179,
      "eg": 5180,
      "onsoon": 5181,
      "6]](https://en.wikipedia.org/api/rest_v1/page/html/India#cite_note-FOOTNOTE": 5182,
      "Robb": 5183,
      "Sharma": 5184,
      "k:": 5185,
      "lack": 5186,
      "lass": 5187,
      "zation": 5188,
      "▁[s": 5189,
      "ances": 5190,
      "oni": 5191,
      "▁(India": 5192,
      "▁Cons": 5193,
      "▁Company": 5194,
      "▁sur": 5195,
      "▁Summit\")": 5196,
      "▁trans": 5197,
      "road": 5198,
      "▁member": 5199,
      "emoc": 5200,
      "emale": 5201,
      "▁Delhi": 5202,
      "▁Bengal": 5203,
      "▁Gandhi": 5204,
      "▁2026": 5205,
      "▁res": 5206,
      "epal": 5207,
      "▁began": 5208,
      "▁dec": 5209,
      "uddhism": 5210,
      "order": 5211,
      "ibet": 5212,
      "Oxford_University_Press": 5213,
      "Stein2010),": 5214,
      "▁Empire\")": 5215,
      "ducation": 5216,
      "esert": 5217,
      "ministrative": 5218,
      "▁2010](https://en.wikipedia.org/api/rest_v1/page/html/India#CITEREFStein2010),": 5219,
      "▁Press](https://en.wikipedia.org/api/rest_v1/page/html/Oxford_University_Press": 5220,
      "ultanate": 5221,
      "do-Aryan": 5222,
      "rgani": 5223,
      "yanmar": 5224,
      "▁Agency": 5225,
      "_and_C": 5226,
      "amily": 5227,
      "▁status": 5228,
      "12.": 5229,
      "Se": 5230,
      "hal": 5231,
      "ple": 5232,
      "-00": 5233,
      "raj": 5234,
      "igh": 5235,
      "ayana": 5236,
      "28)": 5237,
      "unknown\\_parameters#": 5238,
      "/we": 5239,
      "Bharat": 5240,
      "E﻿": 5241,
      "a-b": 5242,
      "geoh": 5243,
      "ison": 5244,
      "_Data_": 5245,
      "▁[GDP": 5246,
      "▁2016.\n": 5247,
      ".net": 5248,
      "geohack": 5249,
      "uth": 5250,
      "▁·": 5251,
      ".aspx?": 5252,
      "britannica": 5253,
      "▁[World": 5254,
      "tis": 5255,
      "213": 5256,
      "▁composed": 5257,
      "JPG": 5258,
      "2)[[": 5259,
      "in-": 5260,
      "hief": 5261,
      "▁Science": 5262,
      "akhand": 5263,
      "ubcontinent": 5264,
      "▁Valley": 5265,
      "ringer": 5266,
      "ttarakhand": 5267,
      "-language\\_sources\\_(en": 5268,
      "e/": 5269,
      "▁This": 5270,
      "as,": 5271,
      "urn": 5272,
      "▁D.": 5273,
      "23.": 5274,
      "epartment": 5275,
      "\")*,": 5276,
      "quality": 5277,
      "/articleshow": 5278,
      "122": 5279,
      "▁(in": 5280,
      "itz": 5281,
      "identifiers": 5282,
      "▁David": 5283,
      "18.": 5284,
      "olden": 5285,
      "-to-": 5286,
      "cia.gov/": 5287,
      "1-1": 5288,
      "Ethnologue": 5289,
      "eval": 5290,
      "▁ed.).": 5291,
      "20.": 5292,
      "▁C.": 5293,
      "▁made": 5294,
      "▁2011.": 5295,
      "▁control": 5296,
      "erala": 5297,
      "ournal": 5298,
      ".పూ.": 5299,
      "_2004": 5300,
      "ంతం": 5301,
      "ఆగ": 5302,
      "కళ": 5303,
      "ఖండ్": 5304,
      "గ్": 5305,
      "గిన": 5306,
      "గఢ్": 5307,
      "జో": 5308,
      "ట్ర": 5309,
      "తెలుగు": 5310,
      "ద్రా": 5311,
      "పద": 5312,
      "భి": 5313,
      "యో": 5314,
      "లక్ష": 5315,
      "వర": 5316,
      "శో": 5317,
      "షా": 5318,
      "హు": 5319,
      "హార్": 5320,
      "హాయ": 5321,
      "ాష్ట్ర": 5322,
      "ీక": 5323,
      "ీహార్": 5324,
      "ుల": 5325,
      "ుల్": 5326,
      "ోల్": 5327,
      "ోత్స": 5328,
      "ౌర్య": 5329,
      "▁[హ": 5330,
      "▁\"హ": 5331,
      "▁\"ఢిల్లీ": 5332,
      "్రూ": 5333,
      "](https://te.wikipedia.org/api/rest_v1/page/html/సి": 5334,
      "ాలా": 5335,
      "ాలలో": 5336,
      "్యం": 5337,
      "ర్ణా": 5338,
      "ర్మే": 5339,
      "▁Mana": 5340,
      "లోక్‌సభ": 5341,
      "▁వంశ": 5342,
      "▁Gana": 5343,
      "ండర్": 5344,
      "త్మా": 5345,
      "▁అతి": 5346,
      "ికి": 5347,
      "ద్దు": 5348,
      "▁రహదార": 5349,
      "మాచల్": 5350,
      "▁సామ్రాజ్య": 5351,
      "రువా": 5352,
      "రుణా": 5353,
      "న్నో": 5354,
      "మిజో": 5355,
      "▁ఇది": 5356,
      "▁జరి": 5357,
      "▁విస్త": 5358,
      "▁శతాబ్ద": 5359,
      "ట్టు": 5360,
      "రాష్ట్రాలు": 5361,
      "వేద": 5362,
      "▁రాజకీయ": 5363,
      "▁2022.\n": 5364,
      "▁ప్రాంతాలు": 5365,
      "aint:": 5366,
      "tent": 5367,
      "హిమాచల్": 5368,
      "హాత్మా": 5369,
      "▁ప్రదేశ్\")": 5370,
      "హారాష్ట్ర": 5371,
      "శాస్త్ర": 5372,
      "రాజస్థాన్": 5373,
      "▁వాతావరణ": 5374,
      "దినోత్స": 5375,
      "బెంగాలీ": 5376,
      "యన్మార్": 5377,
      "▁ముఖ్య": 5378,
      "ంజాబ్": 5379,
      "▁వ్యాస": 5380,
      "గుజరాత్": 5381,
      "ఆఫ్ఘనిస్తాన్": 5382,
      "న్‌ఫర్మే": 5383,
      "రిహద్దు": 5384,
      "చ్చేరి": 5385,
      "ర్ణాటక": 5386,
      "రుణాచల్": 5387,
      "న్‌ఫర్మేషన్": 5388,
      "-C": 5389,
      "203": 5390,
      "▁country": 5391,
      "95": 5392,
      "gned": 5393,
      "20)": 5394,
      "ndra": 5395,
      "timesofindia": 5396,
      "timesofindia.indiatimes.com/": 5397,
      "-विज्ञान": 5398,
      "130": 5399,
      "DR": 5400,
      "_आ": 5401,
      "_उ": 5402,
      "_देश": 5403,
      "ball": 5404,
      "cast": 5405,
      "ker": 5406,
      "mi": 5407,
      "mal": 5408,
      "s\").": 5409,
      "ंच": 5410,
      "ईरा": 5411,
      "छत्तीस": 5412,
      "त्व": 5413,
      "फल": 5414,
      "फ्रीका": 5415,
      "लग": 5416,
      "स\")": 5417,
      "सून": 5418,
      "िंध": 5419,
      "ीच": 5420,
      "१९": 5421,
      "▁app": 5422,
      "dives": 5423,
      "oram": 5424,
      "aputra": 5425,
      "▁\"च": 5426,
      "en/": 5427,
      "aldives": 5428,
      "](https://en.wikipedia.org/api/rest_v1/page/html/O": 5429,
      "](https://en.wikipedia.org/api/rest_v1/page/html/U": 5430,
      "cip": 5431,
      "](https://hi.wikipedia.org/api/rest_v1/page/html/च": 5432,
      "▁कई": 5433,
      "▁कश्मीर": 5434,
      "▁सद": 5435,
      "▁सैन": 5436,
      "▁मुख": 5437,
      "atch": 5438,
      "▁पर्वत": 5439,
      "lowing": 5440,
      "cher": 5441,
      "वित": 5442,
      "_का": 5443,
      "▁दि": 5444,
      "▁बा": 5445,
      "▁बीच": 5446,
      "▁से](http://www.": 5447,
      "ountain": 5448,
      "ताज": 5449,
      "▁rec": 5450,
      "253": 5451,
      "क्षा": 5452,
      "न्दिर": 5453,
      "▁आधिकारिक": 5454,
      "s](https://en.wikipedia.org/api/rest_v1/page/html/C": 5455,
      "स्थ": 5456,
      "▁\"Category:": 5457,
      "otals": 5458,
      "▁गु": 5459,
      "▁उत्पाद": 5460,
      "ाद्वीप": 5461,
      "_मंदिर": 5462,
      "▁संस्कृति": 5463,
      "लेट": 5464,
      "प्रा": 5465,
      "▁इन": 5466,
      "ultural": 5467,
      "_Temple": 5468,
      "िस्ट": 5469,
      "▁करोड़": 5470,
      "▁exp": 5471,
      "▁अनु": 5472,
      "केर": 5473,
      "▁[अंग्रेज़": 5474,
      "rough": 5475,
      "▁जनगणना": 5476,
      "▁हैं।\n": 5477,
      "▁राजनी": 5478,
      "▁\"पंजाब": 5479,
      "र्थव्यवस्था": 5480,
      "▁[पंजाब": 5481,
      "AARC_summit": 5482,
      "करण": 5483,
      "▁होता": 5484,
      "ब्ब": 5485,
      "▁जिसमें": 5486,
      "74-108": 5487,
      "racy": 5488,
      "▁कारण": 5489,
      "ोर्ड": 5490,
      "_मेला?action=edit&redlink=1": 5491,
      "▁York": 5492,
      "▁prime": 5493,
      "गोआ": 5494,
      "श्रीलंका": 5495,
      "rahmaputra": 5496,
      "_Islands": 5497,
      "र्सिट": 5498,
      "flu": 5499,
      "ूनिवर्सिट": 5500,
      "-78074-108": 5501,
      "▁(India)\")": 5502,
      "rganization": 5503,
      "▁[अंग्रेज़ी](https://hi.wikipedia.org/api/rest_v1/page/html/अ": 5504,
      "-78074-108-6": 5505,
      "/lin": 5506,
      "_30": 5507,
      "ages/": 5508,
      "red/lin": 5509,
      "_of_C": 5510,
      "kimages/": 5511,
      "shared/lin": 5512,
      "nclm.nic.in/shared/lin": 5513,
      "nclm.nic.in/shared/linkimages/": 5514,
      "534": 5515,
      "Taj": 5516,
      "_2": 5517,
      "-06": 5518,
      "achine": 5519,
      "CA": 5520,
      "▁2001": 5521,
      "_of_India.svg": 5522,
      "▁3,": 5523,
      "atabase": 5524,
      "oefficient": 5525,
      "aries": 5526,
      "68": 5527,
      ".org": 5528,
      "icha": 5529,
      "21)": 5530,
      "14.": 5531,
      "anath": 5532,
      "ichael": 5533,
      "124": 5534,
      "i-": 5535,
      "pringer": 5536,
      "sted": 5537,
      "contain": 5538,
      "harm": 5539,
      "fication": 5540,
      "CH": 5541,
      "Human": 5542,
      "▁—": 5543,
      "-with": 5544,
      "ict": 5545,
      "[[14": 5546,
      "238": 5547,
      "upreme": 5548,
      "▁From": 5549,
      "ks": 5550,
      "van": 5551,
      "▁12": 5552,
      "elang": 5553,
      "rofile": 5554,
      "3TRtDwAAQBAJ&pg=PA": 5555,
      "7c": 5556,
      "gra": 5557,
      "que": 5558,
      "work": 5559,
      "▁<": 5560,
      "ster": 5561,
      "and-": 5562,
      "▁14.": 5563,
      "▁Publishing": 5564,
      "▁Tamil": 5565,
      "ounci": 5566,
      "▁Ex": 5567,
      "upta": 5568,
      "▁Himalay": 5569,
      "imach": 5570,
      "▁new": 5571,
      "160": 5572,
      "artition": 5573,
      "▁80": 5574,
      "\\_w": 5575,
      "_capita": 5576,
      "urchasing": 5577,
      "ide": 5578,
      "etrag": 5579,
      "1200": 5580,
      "2025": 5581,
      "illi": 5582,
      "Wikipedia\\_articles": 5583,
      "Rowland": 5584,
      "_J": 5585,
      "avi": 5586,
      "aury": 5587,
      "kar": 5588,
      "operation": 5589,
      "▁his": 5590,
      "thnic": 5591,
      "eries": 5592,
      "rig": 5593,
      "sive": 5594,
      "icon": 5595,
      "▁south": 5596,
      "▁movement": 5597,
      "▁River": 5598,
      "aylor": 5599,
      "▁Ge": 5600,
      "abha": 5601,
      "▁non-": 5602,
      ".[[3": 5603,
      "force": 5604,
      "](https://en.wikipedia.org/api/rest_v1/page/html/India#CITEREFB": 5605,
      "s](https://en.wikipedia.org/api/rest_v1/page/html/A": 5606,
      "overty": 5607,
      "a_E": 5608,
      "a](https://en.wikipedia.org/api/rest_v1/page/html/K": 5609,
      "key": 5610,
      "osp": 5611,
      "_East_Asia_Summit": 5612,
      "▁tex": 5613,
      "ilitary": 5614,
      "ological": 5615,
      "illenni": 5616,
      "▁end": 5617,
      "▁change": 5618,
      "▁mathema": 5619,
      "Rowland1970": 5620,
      "-30": 5621,
      ".ni": 5622,
      "▁2016.": 5623,
      "▁Government": 5624,
      "▁Organisation": 5625,
      "ogue": 5626,
      ".php?": 5627,
      "annad": 5628,
      ".ಪ": 5629,
      "/ark": 5630,
      "CL": 5631,
      "Language": 5632,
      "_ನ": 5633,
      "_36": 5634,
      "odu": 5635,
      "ಂಭ": 5636,
      "ಉಪ": 5637,
      "ಓಟ": 5638,
      "ಗದ": 5639,
      "ಗೊಂಡ": 5640,
      "ಚೀ": 5641,
      "ಜಿತ": 5642,
      "ಝೋ": 5643,
      "ಟದ": 5644,
      "ಥವಾ": 5645,
      "ದ್ರ": 5646,
      "ದಿಂದ": 5647,
      "ದ್ವೀಪ": 5648,
      "ದಕ್ಷಿಣ": 5649,
      "ನೈ": 5650,
      "ನಿಂದ": 5651,
      "ನೆಯ": 5652,
      "ಬಿ": 5653,
      "ಮಣ": 5654,
      "ಮಂತ್ರಿ": 5655,
      "ಮಾರು": 5656,
      "ಯೋ": 5657,
      "ರಡ": 5658,
      "ಲಕ್ಷ": 5659,
      "ಲಾಗಿ": 5660,
      "ವಣಿ": 5661,
      "ವು.": 5662,
      "ಶಾ": 5663,
      "ಸತ್ಯ": 5664,
      "ಹ್ಮ": 5665,
      "ಾಂಶ": 5666,
      "ೀಸ್": 5667,
      "ೂರ": 5668,
      "ೆಂದರೆ": 5669,
      "ೇಖ": 5670,
      "ೇರ": 5671,
      "ೇವ": 5672,
      "ೊಳ": 5673,
      "▁ಏ": 5674,
      "▁ಡ": 5675,
      "▁ಫ": 5676,
      "▁ರಾಷ್ಟ್ರೀಯ": 5677,
      "▁ಯು": 5678,
      "▁ಓಟ": 5679,
      ":/121": 5680,
      "▁[ಜ": 5681,
      "▁[ನ": 5682,
      "▁[ವಿ": 5683,
      "▁(2006": 5684,
      "](https://kn.wikipedia.org/api/rest_v1/page/html/C": 5685,
      "](https://kn.wikipedia.org/api/rest_v1/page/html/ನ": 5686,
      "ಭಾರತ\n": 5687,
      "ರ್‌": 5688,
      "ಲಿಷ್": 5689,
      "▁ಸಹ": 5690,
      "▁ಸರ್ಕ": 5691,
      "▁ಮೋದಿ": 5692,
      "▁ಮೂರ": 5693,
      "▁ಪಡೆ": 5694,
      "ಗಳೆಂದರೆ": 5695,
      "ಸ್ವಾ": 5696,
      "ಸ್ಲಾ": 5697,
      "ಸ್ಟ್": 5698,
      "▁ಹಿಂದ": 5699,
      "▁ಕೇಂದ್ರಾಡಳಿತ": 5700,
      "▁ವ್ಯಾಪಾರ": 5701,
      "▁ನಾಗರೀಕ": 5702,
      "ರಿಕ": 5703,
      "▁ಅಮ": 5704,
      "▁ಅಥವಾ": 5705,
      "▁ಬಲ": 5706,
      "ತಿಯ": 5707,
      "ನ್ನಡ": 5708,
      "▁ಆಗ": 5709,
      "▁ಆರಂ": 5710,
      "48/cb": 5711,
      "ಿತು.": 5712,
      "ಿಯಾ": 5713,
      "▁ಇತ": 5714,
      "ಮಿಝೋ": 5715,
      "▁ದೊಡ್ಡ": 5716,
      "o-d": 5717,
      "▁ಚಿಹ್ನೆ": 5718,
      "ಪಾಯಿ": 5719,
      "ಂಗ್ಲ": 5720,
      "ಂಗ್ಲಿಷ್": 5721,
      "▁ಪ್ರದೇಶ](https://kn.wikipedia.org/api/rest_v1/page/html/": 5722,
      "▁ಪ್ರದೇಶ\")\n": 5723,
      "▁ಉಗ": 5724,
      "▁ಶೇ": 5725,
      "imf_12": 5726,
      "imf-12)": 5727,
      "ಕಾಶ್ಮೀ": 5728,
      "ಂಗಾಳ": 5729,
      "▁ಹೊಂದಿದೆ.": 5730,
      "ಗೋಳ": 5731,
      "ೊಂಡಿ": 5732,
      "View": 5733,
      "ಧಾನಮಂತ್ರಿ": 5734,
      "ಸುತ್ತ": 5735,
      "[[೧೨]](https://kn.wikipedia.org/api/rest_v1/page/html/ಭಾರತ#cite_note-": 5736,
      "▁ವರ್ಷ": 5737,
      "/files/": 5738,
      "▁ಭಾಗ": 5739,
      "▁ವ್ಯವಸ್ಥೆ": 5740,
      ".bnf": 5741,
      "ಮಾನ್": 5742,
      "▁ಮಿಲಿಯನ್": 5743,
      "▁ಬ್ರಿಟಿ": 5744,
      "](https://kn.wikipedia.org/api/rest_v1/page/html/ಭಾರತ#cite_ref-imf_12": 5745,
      "▁ಸಿರಿವಂತ": 5746,
      "▁ಪ್ರಪಂಚದ": 5747,
      ".fr/ark": 5748,
      "▁ಕೆಲ": 5749,
      "▁ಎನ್.ಡಿ.ಎ": 5750,
      "odule": 5751,
      "ವಣಿಗೆ": 5752,
      "▁ಓಟು": 5753,
      ":/12148/cb": 5754,
      "▁ಸರ್ಕಾರ": 5755,
      "ಸ್ವಾತಂತ್ರ್ಯ": 5756,
      "▁ಆರಂಭ": 5757,
      "[[೧೨]](https://kn.wikipedia.org/api/rest_v1/page/html/ಭಾರತ#cite_note-imf-12)": 5758,
      ".bnf.fr/ark": 5759,
      ".bnf.fr/ark:/12148/cb": 5760,
      "_with": 5761,
      "uil": 5762,
      "▁Linguistic": 5763,
      "709": 5764,
      "ternal": 5765,
      "613": 5766,
      "9857": 5767,
      "HDR": 5768,
      "Tab": 5769,
      "_व": 5770,
      "jana": 5771,
      "ंट": 5772,
      "जम्मू": 5773,
      "पि": 5774,
      "भ्यता": 5775,
      "मो": 5776,
      "लों": 5777,
      "शा": 5778,
      "िख": 5779,
      "िम": 5780,
      "ीगढ़": 5781,
      "ॉक": 5782,
      "▁ओ": 5783,
      "▁[वि": 5784,
      "▁[सा": 5785,
      "▁\"ग": 5786,
      "▁\"ल": 5787,
      "▁कु": 5788,
      "भारत)": 5789,
      "▁सूचना": 5790,
      "▁मध्य": 5791,
      "▁महासागर": 5792,
      "ानव": 5793,
      "र्ज": 5794,
      "▁tril": 5795,
      "00%20A": 5796,
      "▁जी": 5797,
      "ालदीव": 5798,
      "▁दशक": 5799,
      "ेशन": 5800,
      "ेशिया": 5801,
      "▁*2011": 5802,
      "-49857": 5803,
      "क्षर": 5804,
      "षाण": 5805,
      "_Pro": 5806,
      "ana-m": 5807,
      "ana-49857": 5808,
      "▁शक्ति": 5809,
      "▁शिक्षा": 5810,
      "काश": 5811,
      "-2_Data_": 5812,
      "%202-": 5813,
      "7.208": 5814,
      "ंडीगढ़": 5815,
      "▁लोग": 5816,
      "news18": 5817,
      "▁क्षेत्रीय": 5818,
      "▁77.208": 5819,
      "▁पुरा": 5820,
      "जनसंख्या": 5821,
      "▁जनसंख्या": 5822,
      "▁वर्ग": 5823,
      "les/00%20A": 5824,
      "]](https://hi.wikipedia.org/api/rest_v1/page/html/भारत#cite_note-FOOTNOTEStein1998": 5825,
      "]](https://hi.wikipedia.org/api/rest_v1/page/html/भारत#cite_note-FOOTNOTESingh2009": 5826,
      "india/national-": 5827,
      "-gana-m": 5828,
      "/A-2_Data_": 5829,
      "censusindia.gov.in/2011census/P": 5830,
      "censusindia.gov.in/2011census/population": 5831,
      "मुख्य": 5832,
      "%E0%A4%B": 5833,
      ".com/news/india/national-": 5834,
      "▁स्थित": 5835,
      "UNHDR": 5836,
      "_enumeration": 5837,
      "rief-on-": 5838,
      "त्तराखण्ड": 5839,
      "tats": 5840,
      "bank.org/": 5841,
      "anthem-of-india-": 5842,
      "▁अप्रैल": 5843,
      "हिमाचल": 5844,
      "▁लेख:": 5845,
      "\\_or\\_": 5846,
      "▁शताब्दी": 5847,
      "a-brief-on-": 5848,
      "CA/A-2_Data_": 5849,
      "61389": 5850,
      "Tables/00%20A": 5851,
      "jana-gana-m": 5852,
      "▁trillion": 5853,
      "ana-498576.": 5854,
      "%202-India.pdf)": 5855,
      "news18.com/news/india/national-": 5856,
      "▁77.20833": 5857,
      "censusindia.gov.in/2011census/PCA/A-2_Data_": 5858,
      "censusindia.gov.in/2011census/population_enumeration": 5859,
      "anthem-of-india-a-brief-on-": 5860,
      "Tables/00%20A%202-India.pdf)": 5861,
      "jana-gana-mana-498576.": 5862,
      "news18.com/news/india/national-anthem-of-india-a-brief-on-": 5863,
      "censusindia.gov.in/2011census/PCA/A-2_Data_Tables/00%20A%202-India.pdf)": 5864,
      "news18.com/news/india/national-anthem-of-india-a-brief-on-jana-gana-mana-498576.": 5865,
      "_g": 5866,
      "](http://p": 5867,
      "_map": 5868,
      "400": 5869,
      "C-0": 5870,
      "IJ": 5871,
      "PO": 5872,
      "-135": 5873,
      "15.": 5874,
      "13.": 5875,
      "-lead": 5876,
      "-B": 5877,
      "_17": 5878,
      "\")\"": 5879,
      "arath": 5880,
      "▁[\"P": 5881,
      "utt": 5882,
      "▁\"World": 5883,
      "\\_c": 5884,
      "▁1960": 5885,
      "▁Press,": 5886,
      "udies": 5887,
      "rism": 5888,
      "▁Data*.": 5889,
      "▁high": 5890,
      "-50": 5891,
      "/3": 5892,
      "_24": 5893,
      "▁Total": 5894,
      "8%": 5895,
      "QAAQBAJ&pg=PA": 5896,
      "ssam": 5897,
      "16.": 5898,
      "United_Nations": 5899,
      "hasha": 5900,
      "dlife": 5901,
      "lue": 5902,
      "▁P.": 5903,
      "▁Territory": 5904,
      "ildlife": 5905,
      "▁human": 5906,
      "▁J.": 5907,
      "159": 5908,
      "▁disc": 5909,
      "▁life": 5910,
      "pectancy": 5911,
      "*)": 5912,
      "-29": 5913,
      "bc": 5914,
      "gari": 5915,
      "yy": 5916,
      "▁Factbook": 5917,
      "anagari": 5918,
      "evanagari": 5919,
      "List_of_countries_by_GDP_(nominal)": 5920,
      "india.gov.in/india-glance/national-symbols": 5921,
      "_per_capita": 5922,
      ".html).": 5923,
      ":\n": 5924,
      "TC": 5925,
      "_9": 5926,
      "_di": 5927,
      "uted": 5928,
      "ording": 5929,
      "▁[National": 5930,
      "▁billion": 5931,
      "ments": 5932,
      "▁report": 5933,
      "▁languages\")": 5934,
      "overnment_of_India": 5935,
      "etraglia": 5936,
      "-S": 5937,
      "ead": 5938,
      "ంతి": 5939,
      "కాల": 5940,
      "కారం": 5941,
      "ఖ్": 5942,
      "గంగా": 5943,
      "టో": 5944,
      "డిన": 5945,
      "తీ": 5946,
      "ధి": 5947,
      "ధించ": 5948,
      "నల్": 5949,
      "మన": 5950,
      "మర": 5951,
      "ర్యా": 5952,
      "లం": 5953,
      "లతో": 5954,
      "లమె": 5955,
      "ీస్": 5956,
      "ూప": 5957,
      "ూరు": 5958,
      "ెనీ": 5959,
      "ౌక": 5960,
      "▁ద": 5961,
      "▁ఫ": 5962,
      "▁దక్షిణ": 5963,
      "▁హిందూ": 5964,
      "▁గాంధీ": 5965,
      "▁[భారతదేశం": 5966,
      "▁[ఢిల్లీ": 5967,
      "anth": 5968,
      "ారస": 5969,
      "\\_identifiers": 5970,
      "ాలను": 5971,
      "స్](https://te.wikipedia.org/api/rest_v1/page/html/": 5972,
      "▁పెద్ద": 5973,
      "ర్లు": 5974,
      "00–సా.శ.పూ.": 5975,
      "లు\")": 5976,
      "ంది": 5977,
      "▁వే": 5978,
      "త్తం": 5979,
      "▁(సా.శ.15": 5980,
      "▁(సా.శ.13": 5981,
      "▁అనే": 5982,
      "▁ప్రజ": 5983,
      "తం\")": 5984,
      "ంచి": 5985,
      "▁ఆఫ్": 5986,
      "▁సాం": 5987,
      "ార్లమె": 5988,
      "కిస్థాన్": 5989,
      "▁నే": 5990,
      "▁నగర": 5991,
      "ాయి.": 5992,
      "టిబె": 5993,
      "్రీ.పూ.": 5994,
      "ండియా": 5995,
      "▁ఎక్కువ": 5996,
      "▁ఎన్నో": 5997,
      "▁./వర్గం:Wikipedia\\_articles": 5998,
      "_సం": 5999,
      "ారు.\n": 6000,
      "టుంబ": 6001,
      "▁భారత్": 6002,
      "మెరి": 6003,
      "▁మొత్తం": 6004,
      "బాద్": 6005,
      "ంపెనీ": 6006,
      "హ్మ": 6007,
      "Encyc": 6008,
      "▁ఏర్": 6009,
      "్రిటిషు": 6010,
      "▁అత్యధిక": 6011,
      "ీర్ణ": 6012,
      "దక్షిణ_ఆసియా": 6013,
      "2]](https://en.wikipedia.org/api/rest_v1/page/html/India#cite_note-": 6014,
      "7]](https://en.wikipedia.org/api/rest_v1/page/html/India#cite_note-FOOTNOTE": 6015,
      "_pe": 6016,
      "ez": 6017,
      "ham": 6018,
      "ival": 6019,
      "lurton": 6020,
      "mit": 6021,
      "uis": 6022,
      "udu": 6023,
      "▁ge": 6024,
      "▁urban": 6025,
      "apan": 6026,
      "onom": 6027,
      "alli": 6028,
      "arg": 6029,
      "▁(19": 6030,
      "▁them": 6031,
      "leg": 6032,
      "lief": 6033,
      "▁influ": 6034,
      "ating": 6035,
      "▁pre": 6036,
      "▁painting": 6037,
      "icob": 6038,
      "▁summit": 6039,
      "▁S.": 6040,
      "▁Sec": 6041,
      "hell": 6042,
      "ravi": 6043,
      "ly,": 6044,
      "▁November": 6045,
      "▁2025": 6046,
      "1993": 6047,
      "▁Kingdom": 6048,
      "▁Lank": 6049,
      "▁[↑](https://en.wikipedia.org/api/rest_v1/page/html/India#cite_ref-FOOTNOTEMetcalfMetcalf2006": 6050,
      "stani": 6051,
      "▁\"Indo-": 6052,
      "general_e": 6053,
      "ivil": 6054,
      "▁eastern": 6055,
      "_Indian_general_e": 6056,
      "▁employ": 6057,
      "▁western": 6058,
      "cherry": 6059,
      "illennium": 6060,
      "uducherry": 6061,
      "_Indian_general_election": 6062,
      "91": 6063,
      "str": 6064,
      "▁Col": 6065,
      "▁Intelligence": 6066,
      "_General": 6067,
      "ref-10": 6068,
      "note-10": 6069,
      "265": 6070,
      "▁21.": 6071,
      "2-4": 6072,
      "ji": 6073,
      "lopedia": 6074,
      "ilg": 6075,
      "_Nadu": 6076,
      "amil_Nadu": 6077,
      "ahal": 6078,
      "▁Minorities": 6079,
      "NA": 6080,
      "stribution": 6081,
      "International": 6082,
      "a)": 6083,
      "m2": 6084,
      "yam": 6085,
      "\\_of": 6086,
      "Gua": 6087,
      "JIJ": 6088,
      "Zva": 6089,
      "go": 6090,
      "▁fig": 6091,
      "▁Europe": 6092,
      "_Fund": 6093,
      "GuaJIJ": 6094,
      "ZvaGuaJIJ": 6095,
      "▁figure": 6096,
      "ZvaGuaJIJgo": 6097,
      "_on": 6098,
      "lm": 6099,
      "http://": 6100,
      "thehindu": 6101,
      "akes": 6102,
      "_Affairs": 6103,
      "anipur": 6104,
      "*](https://": 6105,
      "677": 6106,
      "_-": 6107,
      "_राज": 6108,
      "को": 6109,
      "गत": 6110,
      "गू": 6111,
      "टा": 6112,
      "तृत": 6113,
      "म\")": 6114,
      "वल": 6115,
      "श्य": 6116,
      "षय": 6117,
      "हरा": 6118,
      "हित": 6119,
      "िनेमा": 6120,
      "ी.": 6121,
      "ृद्ध": 6122,
      "ेघ": 6123,
      "▁[ग": 6124,
      "▁\"तमिल": 6125,
      "](https://hi.wikipedia.org/api/rest_v1/page/html/ल": 6126,
      "▁सक": 6127,
      "ations\")": 6128,
      "्यों": 6129,
      "▁अव": 6130,
      "uran": 6131,
      "▁1965": 6132,
      "▁प्रेस": 6133,
      "▁प्रौद्योगिक": 6134,
      "्वतंत्रता": 6135,
      "▁व्य": 6136,
      "27)": 6137,
      "▁[Central": 6138,
      "▁संसद": 6139,
      "ियार": 6140,
      "▁लोक": 6141,
      "▁राज्य\")": 6142,
      "हाय": 6143,
      "परमाणु": 6144,
      "ोलन": 6145,
      "▁जाती": 6146,
      "▁राजवंश": 6147,
      "▁स्था": 6148,
      "▁स्थान": 6149,
      "ज्ज": 6150,
      "▁प्राचीन": 6151,
      "▁था।": 6152,
      "▁धर्म\")": 6153,
      "ांग्लादेश": 6154,
      "महाद्वीप": 6155,
      "▁\"हिन्दी\")": 6156,
      "▁पहले": 6157,
      "▁[हिन्दी](https://hi.wikipedia.org/api/rest_v1/page/html/हिन्दी": 6158,
      "▁चुनावों": 6159,
      "▁सैन्य": 6160,
      "Test": 6161,
      "side": 6162,
      "\\_contain": 6163,
      "adwe": 6164,
      "akshadwe": 6165,
      "akshadweep": 6166,
      "Vu": 6167,
      "ZVu": 6168,
      "aut": 6169,
      "c/c": 6170,
      "kZVu": 6171,
      "indus": 6172,
      "3-8": 6173,
      "hra": 6174,
      "nt": 6175,
      "es,": 6176,
      "19.": 6177,
      "urrent": 6178,
      "▁For": 6179,
      "▁Indus": 6180,
      "Official": 6181,
      "bbc": 6182,
      "emon": 6183,
      "▁\"Gross": 6184,
      "▁product": 6185,
      "_Index": 6186,
      "▁Anthem": 6187,
      "▁code": 6188,
      "▁Commissioner,": 6189,
      "ross_dom": 6190,
      "_Development_Index": 6191,
      "estic_pro": 6192,
      "List_of_countries_by_GDP_(PPP)": 6193,
      "ross_domestic_pro": 6194,
      "ross_domestic_product": 6195,
      "cording": 6196,
      "s:": 6197,
      "▁Centre": 6198,
      "▁M.": 6199,
      "▁def": 6200,
      "▁[Ministry": 6201,
      "▁\"British": 6202,
      "hmed": 6203,
      "▁produc": 6204,
      "ripura": 6205,
      "-language\\_sources\\_(en)\n": 6206,
      "Census": 6207,
      "▁2017.": 6208,
      "exist": 6209,
      "Provision": 6210,
      "SAARC_summit": 6211,
      "_2024": 6212,
      "hrist": 6213,
      "lal": 6214,
      "oard": 6215,
      "ph": 6216,
      "ually": 6217,
      "▁9.": 6218,
      "pecial": 6219,
      "▁[f": 6220,
      "ins": 6221,
      "ondon": 6222,
      "alit": 6223,
      "hild": 6224,
      "arty": 6225,
      "▁India\"](https://web.archive.org/web/201": 6226,
      "▁India](https://en.wikipedia.org/api/rest_v1/page/html/G": 6227,
      "atar": 6228,
      "▁far": 6229,
      "▁forest": 6230,
      "ederal": 6231,
      "ver,": 6232,
      "raz": 6233,
      "▁women": 6234,
      "▁Gu": 6235,
      "architecture": 6236,
      "▁Nehru": 6237,
      "_industry": 6238,
      "ability": 6239,
      "vilis": 6240,
      "▁[Chin": 6241,
      "hina": 6242,
      "gional": 6243,
      "a](https://en.wikipedia.org/api/rest_v1/page/html/S": 6244,
      "undament": 6245,
      "aves": 6246,
      "▁[Government": 6247,
      "▁[![A": 6248,
      "athura": 6249,
      "vention": 6250,
      "_Empire": 6251,
      "](https://en.wikipedia.org/api/rest_v1/page/html/Re": 6252,
      "▁technology": 6253,
      "▁Hinduism": 6254,
      "ashmiri": 6255,
      "▁second": 6256,
      "illage": 6257,
      "awahar": 6258,
      "ranci": 6259,
      "](https://en.wikipedia.org/api/rest_v1/page/html/List_of_SAARC_summit": 6260,
      "kingdom": 6261,
      "▁See": 6262,
      "eserve": 6263,
      "▁Persian": 6264,
      "oint": 6265,
      "omason": 6266,
      "_BRICS_summit": 6267,
      "ootball": 6268,
      "overeign": 6269,
      "fghanistan": 6270,
      "icobar": 6271,
      "▁summits\")": 6272,
      "vilisation": 6273,
      "awaharlal": 6274,
      "](https://en.wikipedia.org/api/rest_v1/page/html/List_of_SAARC_summits": 6275,
      "350": 6276,
      "url": 6277,
      "22.": 6278,
      "22-9": 6279,
      "_Commissioner": 6280,
      "ensus_Commissioner": 6281,
      "gistrar_General": 6282,
      "3%": 6283,
      ";\n": 6284,
      "sm": 6285,
      "tlas": 6286,
      "▁Report": 6287,
      "Kashmir": 6288,
      "mrits": 6289,
      "nai": 6290,
      "-85": 6291,
      "ext": 6292,
      "alayal": 6293,
      ".svg.png)": 6294,
      "hennai": 6295,
      "langoff-1": 6296,
      "-4020": 6297,
      ",&": 6298,
      "8,": 6299,
      "-16": 6300,
      ".worldbank.org/": 6301,
      "ek": 6302,
      "▁sq": 6303,
      "▁addition": 6304,
      "▁km2": 6305,
      "uthority": 6306,
      "hā": 6307,
      "▁census": 6308,
      "▁1901": 6309,
      "▁\"International": 6310,
      "▁adop": 6311,
      "catal": 6312,
      "_top": 6313,
      "▁zone": 6314,
      ".net/": 6315,
      "ZvaGuaJIJgoC&pg=PA": 6316,
      "-D": 6317,
      "aul": 6318,
      "21,0": 6319,
      "_of_India?action=edit&redlink=1": 6320,
      "▁United": 6321,
      "1,93,": 6322,
      "\")*\n": 6323,
      "hya": 6324,
      "21,01,93,": 6325,
      "21,01,93,422": 6326,
      "\"](http://": 6327,
      "ourism": 6328,
      "rowing": 6329,
      "▁though": 6330,
      "_Cooperation": 6331,
      "▁\"Central": 6332,
      "/hindi": 6333,
      "1%20": 6334,
      "Ministry_of_": 6335,
      "ues": 6336,
      "▁₹": 6337,
      "▁(2011": 6338,
      "oup": 6339,
      "▁Affairs": 6340,
      "▁religious": 6341,
      "group": 6342,
      "▁States": 6343,
      "rmy": 6344,
      "Articles\\_contain": 6345,
      "/in": 6346,
      "6,": 6347,
      "entury": 6348,
      "▁100": 6349,
      "▁H.": 6350,
      "archive.org/detail": 6351,
      "166": 6352,
      "Convert": 6353,
      "Pages\\_using\\_infobox\\_country\\_with\\_": 6354,
      "Pages\\_using\\_infobox\\_country\\_with\\_unknown\\_parameters#": 6355,
      "7).": 6356,
      "AS": 6357,
      "_26": 6358,
      "_38": 6359,
      "_43": 6360,
      "fli": 6361,
      "tandard": 6362,
      "▁Qu": 6363,
      "en,": 6364,
      "sile": 6365,
      "▁Chand": 6366,
      "issile": 6367,
      "▁name": 6368,
      "emplate_": 6369,
      "cess": 6370,
      "▁sector": 6371,
      "urity": 6372,
      "▁Plateau": 6373,
      "ouncil": 6374,
      "/F": 6375,
      "_घ": 6376,
      "_द": 6377,
      "d=": 6378,
      "ंत": 6379,
      "अभि": 6380,
      "क्": 6381,
      "खन": 6382,
      "गान": 6383,
      "ग्व": 6384,
      "च्": 6385,
      "जं": 6386,
      "टान": 6387,
      "थिल": 6388,
      "दार": 6389,
      "फोर्ड": 6390,
      "ब्ल": 6391,
      "बेट": 6392,
      "भु": 6393,
      "मु": 6394,
      "यत": 6395,
      "यर": 6396,
      "रत": 6397,
      "लंग": 6398,
      "लयाल": 6399,
      "वास": 6400,
      "ेड": 6401,
      "ैंक": 6402,
      "ैथिल": 6403,
      "ॉल": 6404,
      "ॉंग्रेस": 6405,
      "ोस": 6406,
      "ौसेना": 6407,
      "१८": 6408,
      "२००": 6409,
      "▁ईसा": 6410,
      "▁[ड": 6411,
      "▁[ल": 6412,
      "▁[दक्षिण": 6413,
      "▁[पाकिस्तान": 6414,
      "▁\"दक्षिण": 6415,
      "▁\"पाकिस्तान": 6416,
      "](https://hi.wikipedia.org/api/rest_v1/page/html/न": 6417,
      "](https://hi.wikipedia.org/api/rest_v1/page/html/पाकिस्तान": 6418,
      "▁(c": 6419,
      "▁(PPP)": 6420,
      "▁साल": 6421,
      "▁मो": 6422,
      "▁मौ": 6423,
      "राम": 6424,
      "](https://hi.wikipedia.org/api/rest_v1/page/html/भारत_के": 6425,
      "_की_": 6426,
      "content": 6427,
      "▁भारत\")": 6428,
      "2221": 6429,
      "archive\\_template": 6430,
      "▁आर्थिक": 6431,
      "407": 6432,
      "ड़ियाँ": 6433,
      "▁उन": 6434,
      "काता": 6435,
      "▁इंडिया": 6436,
      "ी](https://hi.wikipedia.org/api/rest_v1/page/html/द": 6437,
      "ंडोन": 6438,
      "▁राज्यक्षेत्र": 6439,
      "▁विस्त": 6440,
      "▁विदेश": 6441,
      "ंग्रेजी": 6442,
      "ोलकाता": 6443,
      "ंध्र": 6444,
      "▁अन्त": 6445,
      "▁क्षेत्रों": 6446,
      "▁नेतृत": 6447,
      "केन्द्र": 6448,
      "तेलंग": 6449,
      "▁\"अंग्रेज़ी": 6450,
      "▁देश\")": 6451,
      "▁जनवरी": 6452,
      "हरिया": 6453,
      "ूर्वी": 6454,
      "पुरम": 6455,
      "▁मेला\"),": 6456,
      "ंग्रेज़ी_भाषा": 6457,
      "िशा": 6458,
      "▁२०१": 6459,
      "समिया": 6460,
      "ज्ञाप": 6461,
      "न्नई": 6462,
      "बंधन": 6463,
      "▁population\"))": 6464,
      "▁पुरालेखित।,": 6465,
      "▁मानसून": 6466,
      "_और_संघ": 6467,
      "▁युग": 6468,
      "रक्षा": 6469,
      "वादी": 6470,
      "▁स्वतंत्रता": 6471,
      "_के_आधार_पर_भारत_के_राज्यों_की_सूची": 6472,
      "चेन्नई": 6473,
      "▁बहुत": 6474,
      "▁house\")": 6475,
      "पीठ": 6476,
      "▁capita\"))": 6477,
      "क्सफोर्ड": 6478,
      "▁निर्माण": 6479,
      "त्रिपुरा": 6480,
      "_house": 6481,
      "तेलुगू": 6482,
      "भीमबेट": 6483,
      "झारखंड": 6484,
      "Webarchive\\_template": 6485,
      "छत्तीसगढ़": 6486,
      "िंधु": 6487,
      "▁मुख्य": 6488,
      "ब्बत": 6489,
      "▁[अंग्रेज़ी](https://hi.wikipedia.org/api/rest_v1/page/html/अंग्रेज़ी_भाषा": 6490,
      "▁ओर": 6491,
      "▁कुछ": 6492,
      "▁product\")": 6493,
      "अभिज्ञाप": 6494,
      "च्छ": 6495,
      "तेलंगाना": 6496,
      "भीमबेटका": 6497,
      "Webarchive\\_template\\_w": 6498,
      "अभिज्ञापक": 6499,
      "318": 6500,
      "_50": 6501,
      "gu": 6502,
      "▁Library": 6503,
      "1017": 6504,
      "_Ass": 6505,
      "Harv\\_and\\_Sfn\\_no-target\\_errors\n": 6506,
      "▁[British": 6507,
      "▁\"Government": 6508,
      "▁2024.": 6509,
      "▁along": 6510,
      "▁wide": 6511,
      "3–": 6512,
      "New": 6513,
      "the-world": 6514,
      "2012": 6515,
      "aryana": 6516,
      "-factbook": 6517,
      "the-world-factbook": 6518,
      ".\")\n": 6519,
      ".](https://upload.wikimedia.org/wikipedia/commons/thumb/": 6520,
      "4]](https://en.wikipedia.org/api/rest_v1/page/html/India#cite_note-": 6521,
      "4]](https://en.wikipedia.org/api/rest_v1/page/html/India#cite_note-FOOTNOTE": 6522,
      "5]](https://en.wikipedia.org/api/rest_v1/page/html/India#cite_note-FOOTNOTE": 6523,
      "MC": 6524,
      "MID": 6525,
      "_&": 6526,
      "ced": 6527,
      "code": 6528,
      "ea": 6529,
      "fore": 6530,
      "lood": 6531,
      "mir": 6532,
      "ncient": 6533,
      "–24": 6534,
      "▁es": 6535,
      "orn": 6536,
      "ors": 6537,
      "agen": 6538,
      "th_BRICS_summit": 6539,
      "aland": 6540,
      "arlo": 6541,
      "rid": 6542,
      "rime": 6543,
      "vey": 6544,
      "▁caus": 6545,
      "▁class": 6546,
      "issing": 6547,
      "loth": 6548,
      "▁tree": 6549,
      "▁Punjab": 6550,
      "ular": 6551,
      "▁Research": 6552,
      "_of_2011": 6553,
      "olence": 6554,
      "emographic": 6555,
      "▁when": 6556,
      "oples": 6557,
      "upt": 6558,
      "▁rem": 6559,
      "▁these": 6560,
      "_Paper": 6561,
      "▁language\"),": 6562,
      "opulation_T": 6563,
      "▁[↑](https://en.wikipedia.org/api/rest_v1/page/html/India#cite_ref-FOOTNOTEB": 6564,
      "▁Press](https://en.wikipedia.org/api/rest_v1/page/html/C": 6565,
      "▁liter": 6566,
      "▁[Dyson": 6567,
      "ibcode": 6568,
      "▁1994": 6569,
      "ikhism": 6570,
      "_1_of_2011": 6571,
      "674": 6572,
      "o-operation": 6573,
      "odiversity": 6574,
      "](https://en.wikipedia.org/api/rest_v1/page/html/Indo-": 6575,
      "ociation": 6576,
      "▁Islands\")": 6577,
      "gypt": 6578,
      "ighth": 6579,
      "al_Population_T": 6580,
      "▁development": 6581,
      "ynasty": 6582,
      "culpt": 6583,
      "arnatic": 6584,
      "arriage": 6585,
      "](https://en.wikipedia.org/api/rest_v1/page/html/History_of_": 6586,
      "roadcast": 6587,
      "otals_Paper": 6588,
      "uisine": 6589,
      "ravidian": 6590,
      "Provisional_Population_T": 6591,
      "_1_of_2011_India": 6592,
      "roadcasting": 6593,
      "otals_Paper_1_of_2011_India": 6594,
      "Provisional_Population_Totals_Paper_1_of_2011_India": 6595,
      "_జాబితా": 6596,
      "ఆంధ": 6597,
      "కీ": 6598,
      "కాలు": 6599,
      "క్రమ": 6600,
      "గర్": 6601,
      "డో": 6602,
      "థి": 6603,
      "నె": 6604,
      "నాలు": 6605,
      "పించ": 6606,
      "బడ్డ": 6607,
      "భర": 6608,
      "మహ": 6609,
      "మై": 6610,
      "యన": 6611,
      "రంగ": 6612,
      "లయా": 6613,
      "వార": 6614,
      "శీ": 6615,
      "షనల్": 6616,
      "స్య": 6617,
      "ృద్ధి": 6618,
      "ెంగ": 6619,
      "ేర": 6620,
      "▁దా": 6621,
      "▁నాగరికత": 6622,
      "▁టెక్నాలజీ": 6623,
      "reed": 6624,
      "్రై": 6625,
      "్రప్రదేశ్": 6626,
      "](https://te.wikipedia.org/api/rest_v1/page/html/S": 6627,
      "](https://te.wikipedia.org/api/rest_v1/page/html/ఢిల్లీ": 6628,
      "దేశం": 6629,
      "దేశాల": 6630,
      "దేశాలు": 6631,
      "స్\")": 6632,
      "ర్‌": 6633,
      "లు?action=edit&redlink=1": 6634,
      "రాఠ": 6635,
      "▁కి": 6636,
      "▁కో": 6637,
      "క్టో": 6638,
      "నియా": 6639,
      "▁వర్": 6640,
      "▁వారస": 6641,
      "10)": 6642,
      "ల్వే": 6643,
      "▁సరిహద్దు": 6644,
      "▁మన": 6645,
      "▁మూ": 6646,
      "ండమా": 6647,
      "▁చిన్న": 6648,
      "తాన": 6649,
      "ముఖ": 6650,
      "త్వం": 6651,
      "▁(సా.శ.14": 6652,
      "ులు,": 6653,
      "–సా.శ.17": 6654,
      "▁ప్రతి": 6655,
      "▁ప్రస్తు": 6656,
      "▁ప్రకారం": 6657,
      "▁ప్రముఖ": 6658,
      "ంచిన": 6659,
      "కుడు": 6660,
      "నుమ": 6661,
      "ింది.\n": 6662,
      "▁రో": 6663,
      "▁రంగ": 6664,
      "▁రవాణా": 6665,
      "▁సాధించ": 6666,
      "ష్టు": 6667,
      "ంతో": 6668,
      "▁తరువా": 6669,
      "పాలన": 6670,
      "ం](https://te.wikipedia.org/api/rest_v1/page/html/భారతీయ": 6671,
      "గుర్": 6672,
      "నేషనల్": 6673,
      ",_కేంద్రపాలిత": 6674,
      "▁ప్రాంతం": 6675,
      "వందే": 6676,
      "▁రాజ్యం](https://te.wikipedia.org/api/rest_v1/page/html/": 6677,
      "▁బా": 6678,
      "▁బహు": 6679,
      "▁బెంగ": 6680,
      "ాల్లో": 6681,
      "శ్వా": 6682,
      "ారిటీ": 6683,
      "▁ప్రాంతాలు\")": 6684,
      "గోళ": 6685,
      "బడిన": 6686,
      "తున్న": 6687,
      "న్నిక": 6688,
      "▁స్వాతంత్ర్య": 6689,
      "▁కాలంలో": 6690,
      "ంపి": 6691,
      "బెంగాల్": 6692,
      "▁[Office": 6693,
      "ెలవు": 6694,
      "](https://te.wikipedia.org/api/rest_v1/page/html/భారతదేశంలో_": 6695,
      "▁అధికారిక": 6696,
      "ఆర్ధిక": 6697,
      "▁పట్టణ": 6698,
      "▁కాశ్మీరు": 6699,
      "ంగ్లీషు": 6700,
      "▁అయిన": 6701,
      "▁రెండు": 6702,
      "ాల్దీవులు": 6703,
      "ట్రో": 6704,
      "ుల్తాన": 6705,
      "రాష్ట్రాలు,_కేంద్రపాలిత": 6706,
      "దినోత్సవం": 6707,
      "▁వ్యాసం:": 6708,
      "ార్లమెంట": 6709,
      "▁./వర్గం:Wikipedia\\_articles\\_with\\_": 6710,
      "▁ఏర్ప": 6711,
      "ఆంధ్రప్రదేశ్": 6712,
      "లయాళ": 6713,
      "రాష్ట్రాలు,_కేంద్రపాలిత_ప్రాంత": 6714,
      "files/": 6715,
      "▁Rothermund": 6716,
      "▁Dec": 6717,
      "50th": 6718,
      ".jpe": 6719,
      "orthographic": 6720,
      "_projection": 6721,
      "orthographic_projection": 6722,
      "ohan": 6723,
      "ortheast": 6724,
      "hib": 6725,
      "cise": 6726,
      "\"),[[": 6727,
      "▁2014.": 6728,
      "267": 6729,
      "a_d": 6730,
      "_Lank": 6731,
      "indicat": 6732,
      "ogn": 6733,
      "indicator": 6734,
      ",24": 6735,
      "1-4": 6736,
      "▁°": 6737,
      "feb": 6738,
      "_128": 6739,
      "text": 6740,
      "▁Wikidata": 6741,
      "\\_of\\_": 6742,
      ",85": 6743,
      "law": 6744,
      "▁[International": 6745,
      ".png)\n": 6746,
      "▁\"Official": 6747,
      "hār": 6748,
      "7.\n": 6749,
      "AG": 6750,
      "Home": 6751,
      "ading": 6752,
      "adhya": 6753,
      "▁2012.": 6754,
      "cts": 6755,
      "▁des": 6756,
      "▁Ocean": 6757,
      "ital": 6758,
      "▁ele": 6759,
      "_Agency": 6760,
      "-largest-": 6761,
      ".t": 6762,
      "2)\n": 6763,
      ":IN": 6764,
      "idy": 6765,
      "125": 6766,
      "EX": 6767,
      "_0": 6768,
      "ethnologue": 6769,
      "var": 6770,
      "▁17.": 6771,
      "akrishn": 6772,
      "arliamentofindia": 6773,
      "▁1,210": 6774,
      "kZVuDwAAQBAJ&pg=PA": 6775,
      "ethnologue.com/": 6776,
      "1-3": 6777,
      "b/": 6778,
      "i,": 6779,
      "an,": 6780,
      "▁prom": 6781,
      "▁Central": 6782,
      "ise": 6783,
      "istorical": 6784,
      "▁only": 6785,
      "▁near": 6786,
      "arendra": 6787,
      "▁use": 6788,
      "ublications/": 6789,
      "each": 6790,
      "260": 6791,
      "▁coefficient": 6792,
      "▁medium": 6793,
      "name": 6794,
      ".[[23": 6795,
      "▁diffe": 6796,
      "▁31": 6797,
      "48)": 6798,
      "arliest": 6799,
      "1947)": 6800,
      "-th": 6801,
      "5).": 6802,
      "7]](https://en.wikipedia.org/api/rest_v1/page/html/India#cite_note-": 6803,
      "IF": 6804,
      "IUCN": 6805,
      "ax": 6806,
      "cu": 6807,
      "ctive": 6808,
      "lof": 6809,
      "pr": 6810,
      "pic": 6811,
      "▁hist": 6812,
      "digarh": 6813,
      "inan": 6814,
      "inem": 6815,
      "](https://en.wikipedia.org/api/rest_v1/page/html/Category:": 6816,
      "aro": 6817,
      "▁India.[[": 6818,
      "▁India](https://en.wikipedia.org/api/rest_v1/page/html/C": 6819,
      "ashi": 6820,
      "ams": 6821,
      "▁college": 6822,
      "ada": 6823,
      "adra": 6824,
      "adras": 6825,
      "▁fam": 6826,
      "ediff": 6827,
      "▁Park": 6828,
      "rah": 6829,
      "]](https://en.wikipedia.org/api/rest_v1/page/html/India#cite_note-Combined": 6830,
      "▁De": 6831,
      "▁Bi": 6832,
      "irth": 6833,
      "▁last": 6834,
      "▁Games": 6835,
      "_in_New": 6836,
      "▁her": 6837,
      "▁through": 6838,
      "▁growth": 6839,
      "s](https://en.wikipedia.org/api/rest_v1/page/html/P": 6840,
      "AAJ": 6841,
      "▁original](http://": 6842,
      "▁\"Mughal": 6843,
      "353": 6844,
      "estival": 6845,
      "▁within": 6846,
      "▁\"Template:": 6847,
      "ismatch": 6848,
      "ikkim": 6849,
      "ishing": 6850,
      "▁river": 6851,
      "handigarh": 6852,
      "ographical": 6853,
      "ote:": 6854,
      "Dyson2018),": 6855,
      "▁Buddhist": 6856,
      "▁groups": 6857,
      "nergy": 6858,
      "▁2018](https://en.wikipedia.org/api/rest_v1/page/html/India#CITEREFDyson2018),": 6859,
      "▁emer": 6860,
      "▁increased": 6861,
      "a_Empire": 6862,
      "osphere": 6863,
      "pecially": 6864,
      "▁Quote:": 6865,
      "▁especially": 6866,
      "▁remain": 6867,
      "_in_New_Delhi": 6868,
      "123": 6869,
      "\\*": 6870,
      "_इ": 6871,
      "_श": 6872,
      "_धर्म": 6873,
      "ault": 6874,
      "ँची": 6875,
      "अंग्रेज़ी": 6876,
      "उप": 6877,
      "एन": 6878,
      "गलु": 6879,
      "टना": 6880,
      "तन": 6881,
      "द्वार": 6882,
      "पार": 6883,
      "भग": 6884,
      "मरी": 6885,
      "रि": 6886,
      "स्व": 6887,
      "ेद": 6888,
      "ेल": 6889,
      "ोला": 6890,
      "▁औ": 6891,
      "▁भा": 6892,
      "▁ले": 6893,
      "▁भाग": 6894,
      "▁[य": 6895,
      "▁[ह": 6896,
      "▁\"य": 6897,
      "](https://hi.wikipedia.org/api/rest_v1/page/html/दक्षिण": 6898,
      "](https://hi.wikipedia.org/api/rest_v1/page/html/तमिल": 6899,
      "▁काल": 6900,
      "▁कॉंग्रेस": 6901,
      "्रय": 6902,
      "भारतीय": 6903,
      "▁सभा": 6904,
      "▁सित": 6905,
      "▁समाज": 6906,
      "▁मई": 6907,
      "▁मन": 6908,
      "▁मह": 6909,
      "▁मिल": 6910,
      "▁मशीन": 6911,
      "ेंगलु": 6912,
      "र्ध": 6913,
      "](https://hi.wikipedia.org/api/rest_v1/page/html/भारत_के_राज्य": 6914,
      "्तु": 6915,
      "▁में,": 6916,
      "▁अभ": 6917,
      "▁जब": 6918,
      "▁द्वीप": 6919,
      "▁1971": 6920,
      "_(भारत)": 6921,
      "▁नव": 6922,
      "_से": 6923,
      "_साम": 6924,
      "▁व्या": 6925,
      "▁गई": 6926,
      "ड़िया": 6927,
      "▁शहर": 6928,
      "▁[मध्य": 6929,
      "]](https://hi.wikipedia.org/api/rest_v1/page/html/भारत#cite_note-pib": 6930,
      "म्भ": 6931,
      "_के_अन": 6932,
      "संधान": 6933,
      "त्तरी": 6934,
      "▁लिये": 6935,
      "▁यूनिवर्सिट": 6936,
      "▁जनजाति": 6937,
      "▁राजधान": 6938,
      "रुणा": 6939,
      "ोर्ट": 6940,
      "▁साम्राज्य\")": 6941,
      "▁\"Registrar": 6942,
      "धुनिक": 6943,
      "ूर्ण": 6944,
      "▁(2018),": 6945,
      "_and_Census_Commissioner": 6946,
      "_देशों_की_सूची": 6947,
      "ताजमह": 6948,
      "क्षरता": 6949,
      "▁स्थाप": 6950,
      "gistrar_General_and_Census_Commissioner": 6951,
      "▁[पाकिस्तान](https://hi.wikipedia.org/api/rest_v1/page/html/पाकिस्तान": 6952,
      "ेंगलुरु": 6953,
      "_साम्राज्य": 6954,
      "_के_अनुसार": 6955,
      "▁यूनिवर्सिटी": 6956,
      "M50th": 6957,
      "NCL": 6958,
      "▁[28": 6959,
      "▁India\"](https://": 6960,
      "▁Bengali": 6961,
      ".org/wiki/": 6962,
      "▁[Kulke": 6963,
      "_region": 6964,
      "Report.pdf)": 6965,
      "nclm.nic.in/shared/linkimages/NCL": 6966,
      "M50thReport.pdf)": 6967,
      "nclm.nic.in/shared/linkimages/NCLM50thReport.pdf)": 6968,
      "9/": 6969,
      "▁India*.": 6970,
      "▁original](http://www.": 6971,
      "attle": 6972,
      "ilgrim": 6973,
      ",4": 6974,
      "▁4.": 6975,
      "heel": 6976,
      "108": 6977,
      "ritten": 6978,
      "-pro": 6979,
      "data.worldbank.org/": 6980,
      "data.worldbank.org/indicator": 6981,
      "78.": 6982,
      "115": 6983,
      "▁[Singh": 6984,
      "8/8": 6985,
      "4/4": 6986,
      "F)": 6987,
      "anat": 6988,
      "ricity": 6989,
      "▁script": 6990,
      "▁B.;": 6991,
      "-53": 6992,
      "-107-0": 6993,
      "efore": 6994,
      "49-2": 6995,
      "_Force": 6996,
      "hattis": 6997,
      ".htm)": 6998,
      "▁adopted": 6999,
      "1-0": 7000,
      "577": 7001,
      "cbi": 7002,
      "ncbi": 7003,
      "vent": 7004,
      "▁[978-0-521": 7005,
      "es.": 7006,
      "_Act": 7007,
      "270": 7008,
      "on-Ali": 7009,
      ".nlm": 7010,
      ".nih": 7011,
      "mritsar": 7012,
      "ncbi.nlm": 7013,
      "on-Aligned": 7014,
      "ncbi.nlm.nih": 7015,
      "_World": 7016,
      "ys": 7017,
      "kil": 7018,
      "▁People": 7019,
      ".ರ": 7020,
      "_ವ": 7021,
      "_ಭಾರತದ_": 7022,
      "_ಸಾ": 7023,
      "kb": 7024,
      "āgar": 7025,
      "ಂಕ": 7026,
      "ಂಖ": 7027,
      "ಂಚ": 7028,
      "ಂ\")\n": 7029,
      "ಂಕಾ": 7030,
      "ಅರು": 7031,
      "ಅಂಡ": 7032,
      "ಆಂಧ": 7033,
      "ಆರ್ಕ": 7034,
      "ಆಂಗ್ಲ": 7035,
      "ಇಂದಿ": 7036,
      "ಇತಿಹಾಸ": 7037,
      "ಇಸ್ಲಾ": 7038,
      "ಉರ್": 7039,
      "ಎನ್.": 7040,
      "ಒಡಿ": 7041,
      "ಒರಿಯಾ": 7042,
      "ಕೀ": 7043,
      "ಕೊಂಡಿ": 7044,
      "ಖನ್": 7045,
      "ಗ್ರಿ": 7046,
      "ಗಂಗಾ": 7047,
      "ಘಲ್": 7048,
      "ಘಾಲಯ": 7049,
      "ಚೇ": 7050,
      "ಛತ್ತ": 7051,
      "ಜ್": 7052,
      "ಞಾನ": 7053,
      "ಟಕ": 7054,
      "ಠಿ": 7055,
      "ಡಾ": 7056,
      "ಡೀ": 7057,
      "ಡೊ": 7058,
      "ಡೋ": 7059,
      "ತಾನ": 7060,
      "ತ್ವ": 7061,
      "ತ್ರಿ": 7062,
      "ತರಂ": 7063,
      "ತಟದ": 7064,
      "ತಾಂಶ": 7065,
      "ಥಮ": 7066,
      "ಥಾರ್": 7067,
      "ಥಿಲಿ": 7068,
      "ದ್ಯ": 7069,
      "ದೀಯ": 7070,
      "ದಖನ್": 7071,
      "ಧೀ": 7072,
      "ಧಂಖ": 7073,
      "ನ:": 7074,
      "ನು": 7075,
      "ನ\\_": 7076,
      "ಪ್ತ": 7077,
      "ಪದಿ": 7078,
      "ಪಟ್ಟ": 7079,
      "ಪಶ್ಚಿಮ": 7080,
      "ಬಾರ್": 7081,
      "ಭರತ": 7082,
      "ಮಾರ್": 7083,
      "ಮೇವ": 7084,
      "ಯಮು": 7085,
      "ಯತೆ": 7086,
      "ರದ": 7087,
      "ರ\")\n": 7088,
      "ರೆಯ": 7089,
      "ರಷ್ಯಾ": 7090,
      "ರೋಕ್": 7091,
      "ಲೇ": 7092,
      "ಲಾರ": 7093,
      "ಲಯಾ": 7094,
      "ಲಂಕಾ": 7095,
      "ಲಡಾ": 7096,
      "ಳಂ": 7097,
      "ಳಗ": 7098,
      "ಳೆಯ": 7099,
      "ಳುನಾ": 7100,
      "ವಂದ": 7101,
      "ವದೆಹಲಿ": 7102,
      "ಶ್ರೀ": 7103,
      "ಸಂತ": 7104,
      "ಸಭಾ": 7105,
      "ಸಾರ್ವತ್ರಿಕ": 7106,
      "ಸಲಾಗಿ": 7107,
      "ಹರಿಯಾ": 7108,
      "ಾಲಿ": 7109,
      "ಾಂಧ": 7110,
      "ಾಚಲ": 7111,
      "ಿನ": 7112,
      "ಿಹಾರ": 7113,
      "ಿಸಿದ": 7114,
      "ೀಗಢ": 7115,
      "ುಶ": 7116,
      "ು.\n": 7117,
      "ುಗು": 7118,
      "ೃಷ್": 7119,
      "ೆಂಗಾ": 7120,
      "ೆಂಗಳೂರು": 7121,
      "ೆರಿಕ": 7122,
      "ೇಘಾಲಯ": 7123,
      "ೈವ್": 7124,
      "ೈಥಿಲಿ": 7125,
      "ೊಂಕ": 7126,
      "ೊಘಲ್": 7127,
      "ೋಡೊ": 7128,
      "ೋಬಾರ್": 7129,
      "ೌರ್ಯ": 7130,
      "ೌಪದಿ": 7131,
      "್ಲೇ": 7132,
      "೦.": 7133,
      "೩೦": 7134,
      "‌ಡ": 7135,
      "‌ವೆ": 7136,
      "‌ಗಢ": 7137,
      "▁ಭಾಷ": 7138,
      "▁ದೆಹಲಿ": 7139,
      "▁ರಿಂದ": 7140,
      "▁[ಚ": 7141,
      "▁[ಪ್ರ": 7142,
      "▁[ವೇಬ್ಯಾಕ್": 7143,
      "▁[ಜೈನ": 7144,
      "▁[ಸಿಖ್": 7145,
      "▁[ಸಿಂಧೂ": 7146,
      "▁\"ಜ": 7147,
      "▁\"ವೇಬ್ಯಾಕ್": 7148,
      "▁\"ಜೈನ": 7149,
      "▁\"ಸಿಖ್": 7150,
      "▁\"ಸಿಂಧೂ": 7151,
      "▁\"ಸಂಸ್ಕೃತ": 7152,
      "▁\"ಇಂಡ": 7153,
      "\")ಯ": 7154,
      "anāgar": 7155,
      "\\_ಟೆ": 7156,
      "\\_ಆರ್ಕ": 7157,
      "\\_ಕೊಂಡಿ": 7158,
      "](https://kn.wikipedia.org/api/rest_v1/page/html/ಜ": 7159,
      "](https://kn.wikipedia.org/api/rest_v1/page/html/ವೇಬ್ಯಾಕ್": 7160,
      "](https://kn.wikipedia.org/api/rest_v1/page/html/ಜೈನ": 7161,
      "](https://kn.wikipedia.org/api/rest_v1/page/html/ಸಿಖ್": 7162,
      "](https://kn.wikipedia.org/api/rest_v1/page/html/ಸಿಂಧೂ": 7163,
      "](https://kn.wikipedia.org/api/rest_v1/page/html/ಸಂಸ್ಕೃತ": 7164,
      "ಾರೆ.": 7165,
      "್ರಹ್ಮ": 7166,
      "▁Muslim": 7167,
      "ರ್ನಾ": 7168,
      "ಲಿನ": 7169,
      "ಲಿತಾಂಶ": 7170,
      "▁ಮೇ": 7171,
      "▁ಮಂತ್ರಿ": 7172,
      "▁Dictionary": 7173,
      "▁ಪರಿ": 7174,
      "▁ಪಟ್ಟ": 7175,
      "▁*ಮುಖ್ಯ": 7176,
      "ರಾಖಂಡ": 7177,
      "ರಾಠಿ": 7178,
      "ಭಾರತದಲ್ಲಿ": 7179,
      "▁International": 7180,
      "ಲ್ಲಿ.\n": 7181,
      "ಕ್ಸ್": 7182,
      "▁ಕಾಲ": 7183,
      "▁ನ್ಯಾ": 7184,
      "▁ನಡೆ": 7185,
      "▁ನಾಲ್": 7186,
      "▁ನಲ್ಲಿ.\n": 7187,
      "umbered": 7188,
      "ರಿ](https://kn.wikipedia.org/api/rest_v1/page/html/": 7189,
      "ರಿಕೆ": 7190,
      "▁ಬಂಗಾಳ": 7191,
      "▁ಬಳಗ": 7192,
      "ದೇಶಿಕ": 7193,
      "ರುಭೂಮಿ": 7194,
      "ಾಗಾಲ": 7195,
      "ಿಕೆ": 7196,
      "ಿಕೋಬಾರ್": 7197,
      "ಂಡಲ": 7198,
      "ಂಡ್": 7199,
      "ಂಡಿಯಾ": 7200,
      "ಂಡೀಗಢ": 7201,
      "ಸಿತ": 7202,
      "ಸಿಕ್ಕಿ": 7203,
      "್ಯಾಂಡ್": 7204,
      "ಜನಗಣತಿ": 7205,
      "ೆಯಲ್ಲಿ": 7206,
      "ೆಯನ್ನು": 7207,
      "ೆಯಿತು.": 7208,
      "ರ್ಮು": 7209,
      "ರ್ಮದಾ": 7210,
      "ಸ್ತಭೂಮಿ": 7211,
      "ಿಯು": 7212,
      "ಿಯನ್": 7213,
      "▁ಇಂಡಿಯಾ": 7214,
      "್ರಿಕ್ಸ್": 7215,
      "ವಿಡ": 7216,
      "ವಿ.ರ": 7217,
      "▁ಸಂಖ್ಯ": 7218,
      "▁ಸಂಘಟನೆ": 7219,
      "ವರ್ಷ": 7220,
      "ಮುಸ್ಲಿಮ್": 7221,
      "▁ಭಾರತಕ್ಕೆ": 7222,
      "ವೇದ": 7223,
      "ವೇಲಿ": 7224,
      "ಗಣತಂತ್ರ": 7225,
      "▁ದ್ವೀಪ": 7226,
      "▁ದಕ್ಷಿಣ": 7227,
      "ಟಿನ\\_": 7228,
      "▁ಎಂದು": 7229,
      "▁ಸಾಲಿನ": 7230,
      "▁ಚಳುವಳಿ": 7231,
      "▁./ವರ್ಗ:ವೆ": 7232,
      "_ಮೆಷಿನ್": 7233,
      "ಪಾಕಿಸ್ತಾನ": 7234,
      "ಂಗ್‌ಡ": 7235,
      "ದುಚೇ": 7236,
      "ಾಲರ್‌": 7237,
      "▁ಉತ್ತ": 7238,
      "▁ಉತ್": 7239,
      "▁ಭಾಷೆ\")•": 7240,
      "ಾರ್ಖಂಡ": 7241,
      "ಸ್ತಾನಗಳ": 7242,
      "▁(2014).": 7243,
      "ವಾಗಿದೆ.": 7244,
      "ಕಾವೇ": 7245,
      "ಕಾಮನ್": 7246,
      "ಪುತ್ರ": 7247,
      "ಪುದುಚೇ": 7248,
      "ಯುನೈ": 7249,
      "ವೆಂದರೆ": 7250,
      "ದಾಯ": 7251,
      "ದಾದ್ರಾ": 7252,
      "ದಾವರಿ": 7253,
      "ೈನ್ಯ": 7254,
      "ೊಂದಿಗೆ": 7255,
      "▁ಲೋಕ": 7256,
      "▁ಲೇಖ": 7257,
      "ಂಗಾಣ": 7258,
      "ಗುಪ್ತ": 7259,
      "ಯಾಧೀ": 7260,
      "ಟೆಡ್": 7261,
      "ಭೂಗೋಳ": 7262,
      "ಭೂತಾನ": 7263,
      "ಸಿಂಧಿ": 7264,
      "ವೇಬ್ಯಾಕ್\\_ಕೊಂಡಿ": 7265,
      "evanāgar": 7266,
      ".gov.in/)\n": 7267,
      "ಕ್ತಿಯ": 7268,
      "ಗೋವಾ": 7269,
      "ಗೋದಾವರಿ": 7270,
      "ಧ್ಯಪ್ರದೇಶ": 7271,
      "ೀಪ್": 7272,
      "▁[ಬೌದ್ಧ": 7273,
      "▁\"ಬೌದ್ಧ": 7274,
      "](https://kn.wikipedia.org/api/rest_v1/page/html/ಬೌದ್ಧ": 7275,
      "▁ಕೋಟಿ)": 7276,
      "ಗ್ರಾಮ": 7277,
      "ಣಾಚಲ": 7278,
      "ಮ್ಮು": 7279,
      "▁ಹೋದ": 7280,
      "▁ಹೋಲಿ": 7281,
      "▁ಹೆಸರಿ": 7282,
      "ಸಂಸ್ಕೃತ](https://kn.wikipedia.org/api/rest_v1/page/html/ಸಂಸ್ಕೃತ": 7283,
      "ಬ್\\_ಆರ್ಕ": 7284,
      "ರಾಜಸ್ಥಾನ": 7285,
      "▁ಸಾಮ್ರಾಜ್ಯ\")": 7286,
      "▁ಜನಸಂಖ್ಯೆಯನ್ನು": 7287,
      "ಯನ್ಮಾರ್": 7288,
      "ಾಲ್ಡೀ": 7289,
      "▁ಸುಮಾರು": 7290,
      "▁ಮಾಹಿ": 7291,
      "▁ಸಂಪತ್ತು": 7292,
      "ದ್ದು,": 7293,
      "ದ್ದು.": 7294,
      "▁ರೂ.": 7295,
      "▁ರೂಪಾಯಿ": 7296,
      "▁ಬೆಳವಣಿಗೆ": 7297,
      "olkata": 7298,
      "▁6.6": 7299,
      "2nd](https://kn.wikipedia.org/api/rest_v1/page/html/": 7300,
      "%E0%B2%": 7301,
      "india.gov.in/knowindia/national": 7302,
      "_ಚುನಾವಣೆ": 7303,
      "ಉತ್ತರ": 7304,
      "ಉತ್ತರಾಖಂಡ": 7305,
      "ತಮಿಳು": 7306,
      "ತಮಿಳುನಾ": 7307,
      "ದ್ರಾವಿಡ": 7308,
      "ರ್ಯನ್": 7309,
      "ವ್ಸ್": 7310,
      "ಹಿಮಾಲಯ": 7311,
      "ಹಿಮಾಚಲ": 7312,
      "▁ಮೆಷಿನ್\")": 7313,
      "▁ಮೆಷಿನ್](https://kn.wikipedia.org/api/rest_v1/page/html/ವೇಬ್ಯಾಕ್": 7314,
      "ನೇಪಾಳ": 7315,
      "ನೇಪಾಳಿ": 7316,
      "ಮುಂಬೈ": 7317,
      "ಮುಂಬಯಿ": 7318,
      "ಣಿಪುರಿ": 7319,
      "೨೦೦೯ರ": 7320,
      "ತೆಲುಗು": 7321,
      "ತೆಲಂಗಾಣ": 7322,
      "ಗುಜರಾತಿ": 7323,
      "ಗುಜರಾತ್": 7324,
      "ಪಂಜಾಬ್": 7325,
      "ಪಂಜಾಬಿ": 7326,
      "ಅಸ್ಸಾಮಿ": 7327,
      "▁mi)": 7328,
      "ಂಪ್ಲೇ": 7329,
      "ಧಿಪತಿ": 7330,
      "▁ಗಣರಾಜ್ಯದ": 7331,
      "▁ಕ್ರಿ.ಪ": 7332,
      "ಸಂಸದೀಯ": 7333,
      "ಹಾರಾಷ್ಟ್ರ": 7334,
      "](https://kn.wikipedia.org/api/rest_v1/page/html/ಚಿತ್ರ:India": 7335,
      "▁ಮೊದಲ": 7336,
      "ಂಭಿಸಿದ": 7337,
      "ಗದೀಪ್": 7338,
      "ದ್ರೌಪದಿ": 7339,
      "ಲಕ್ಷದ್ವೀಪ": 7340,
      "ಸತ್ಯಮೇವ": 7341,
      "ೀಸ್‌ಗಢ": 7342,
      "ೇರಳ": 7343,
      "ೊಳ್": 7344,
      "▁ಏರಿಕೆ": 7345,
      "▁ಡಾಲರ್‌": 7346,
      "▁ಮೂರನೇ": 7347,
      "▁ಅಮೆರಿಕ": 7348,
      "ಮಿಝೋರಂ": 7349,
      "▁ಉಗಮ": 7350,
      "▁ಬ್ರಿಟಿಷ್": 7351,
      "▁ಕೆಲವೆಂದರೆ": 7352,
      "▁ಆರಂಭವಾಗಿ": 7353,
      "_ಸಾಮ್ರಾಜ್ಯ": 7354,
      "ಅರುಣಾಚಲ": 7355,
      "ಅಂಡಮಾನ್": 7356,
      "ಆಂಧ್ರ": 7357,
      "ಇಂದಿರಾ": 7358,
      "ಉರ್ದು": 7359,
      "ಎನ್.ವಿ.ರ": 7360,
      "ಒಡಿಶಾ": 7361,
      "ಕೀಸ್ತಾನಗಳ": 7362,
      "ಛತ್ತೀಸ್‌ಗಢ": 7363,
      "ಜ್ಞಾನ": 7364,
      "ಡೋಗ್ರಿ": 7365,
      "ತ್ರಿಪು": 7366,
      "ಧಂಖರ್": 7367,
      "ಭರತವರ್ಷ": 7368,
      "ಯಮುನಾ": 7369,
      "ಲಾರಂಭಿಸಿದ": 7370,
      "ಲಯಾಳಂ": 7371,
      "ಲಡಾಖ್": 7372,
      "ವಂದೇ": 7373,
      "ಶ್ರೀಲಂಕಾ": 7374,
      "ಸಂತಾಲಿ": 7375,
      "ಹರಿಯಾಣ": 7376,
      "ಾಂಧಿ": 7377,
      "ೃಷ್ಣಾ": 7378,
      "ೆಂಗಾಲಿ": 7379,
      "ೈವ್\\_ಟೆ": 7380,
      "ೊಂಕಣಿ": 7381,
      "‌ವೆಲ್ತ್‌": 7382,
      "▁ಭಾಷಾ": 7383,
      "್ರಹ್ಮಪುತ್ರ": 7384,
      "ರ್ನಾಟಕ": 7385,
      "▁ಪಟ್ಟಿಯಲ್ಲಿ": 7386,
      "▁ನಾಲ್ಕ": 7387,
      "ಾಗಾಲ್ಯಾಂಡ್": 7388,
      "ಟಿನ\\_ವೇಬ್ಯಾಕ್\\_ಕೊಂಡಿ": 7389,
      "▁./ವರ್ಗ:ವೆಬ್\\_ಆರ್ಕ": 7390,
      "ಾರ್ಖಂಡ್": 7391,
      "ಕಾಮನ್‌ವೆಲ್ತ್‌": 7392,
      "ಯುನೈಟೆಡ್": 7393,
      "▁ಲೇಖನ:": 7394,
      "ಯಾಧೀಶ": 7395,
      "evanāgarī": 7396,
      "ಾಲ್ಡೀವ್ಸ್": 7397,
      "▁ಮಾಹಿತಿ": 7398,
      "ತಮಿಳುನಾಡು": 7399,
      "▁ಮೆಷಿನ್](https://kn.wikipedia.org/api/rest_v1/page/html/ವೇಬ್ಯಾಕ್_ಮೆಷಿನ್": 7400,
      "ಂಪ್ಲೇಟಿನ\\_ವೇಬ್ಯಾಕ್\\_ಕೊಂಡಿ": 7401,
      "▁ಕ್ರಿ.ಪೂ": 7402,
      "ಎನ್.ವಿ.ರಮಣ": 7403,
      "ೈವ್\\_ಟೆಂಪ್ಲೇಟಿನ\\_ವೇಬ್ಯಾಕ್\\_ಕೊಂಡಿ": 7404,
      "▁./ವರ್ಗ:ವೆಬ್\\_ಆರ್ಕೈವ್\\_ಟೆಂಪ್ಲೇಟಿನ\\_ವೇಬ್ಯಾಕ್\\_ಕೊಂಡಿ": 7405,
      "▁./ವರ್ಗ:ವೆಬ್\\_ಆರ್ಕೈವ್\\_ಟೆಂಪ್ಲೇಟಿನ\\_ವೇಬ್ಯಾಕ್\\_ಕೊಂಡಿಗಳು\n": 7406,
      "9–": 7407,
      "bhasha": 7408,
      "\")+": 7409,
      "▁जय": 7410,
      "▁[UTC": 7411,
      ",977": 7412,
      ";[[": 7413,
      "rance": 7414,
      "tiger": 7415,
      "▁popul": 7416,
      "▁Society": 7417,
      "ull": 7418,
      "-39": 7419,
      "▁[\"World": 7420,
      "ndhra": 7421,
      "ureau": 7422,
      "lative": 7423,
      "27.": 7424,
      "aith": 7425,
      "troduction": 7426,
      "ties/": 7427,
      "FOOTNOTEWolpert2003": 7428,
      "aylight": 7429,
      "269,": 7430,
      "287,": 7431,
      "anchi": 7432,
      "▁(1,269,": 7433,
      "▁3,287,": 7434,
      "41": 7435,
      "▁\"ISO": 7436,
      "▁(b": 7437,
      "▁All": 7438,
      "uni": 7439,
      "rust": 7440,
      "hmedabad": 7441,
      "atp": 7442,
      "India_": 7443,
      "103": 7444,
      "▁Universal": 7445,
      "2011religion": 7446,
      "_Time": 7447,
      "Asher2006": 7448,
      "AsherAsher2006": 7449,
      "_from": 7450,
      "f/f": 7451,
      "Census2011religion": 7452,
      "9]](https://en.wikipedia.org/api/rest_v1/page/html/India#cite_note-": 7453,
      "aha": 7454,
      "ative": 7455,
      "ble": 7456,
      "baki": 7457,
      "eology": 7458,
      "hut": 7459,
      "ka": 7460,
      "khand": 7461,
      "min": 7462,
      "pro": 7463,
      "ui": 7464,
      "utical": 7465,
      "▁low": 7466,
      "orship": 7467,
      "▁[978-81": 7468,
      "tici": 7469,
      "tice": 7470,
      "](https://en.wikipedia.org/api/rest_v1/page/html/World": 7471,
      "](https://en.wikipedia.org/api/rest_v1/page/html/South_Asian": 7472,
      "arth": 7473,
      "▁(ed.).": 7474,
      "▁off": 7475,
      "lima": 7476,
      "ation,": 7477,
      "atri": 7478,
      "▁political": 7479,
      "▁Comp": 7480,
      "ichell": 7481,
      "▁sha": 7482,
      "umar": 7483,
      "itc": 7484,
      "ango": 7485,
      "very": 7486,
      "▁Man": 7487,
      "oln": 7488,
      "▁work": 7489,
      "iland": 7490,
      "▁By": 7491,
      "▁long": 7492,
      "Union": 7493,
      "▁hum": 7494,
      "-415": 7495,
      "ubram": 7496,
      "s](https://en.wikipedia.org/api/rest_v1/page/html/S": 7497,
      "406]](https://en.wikipedia.org/api/rest_v1/page/html/India#cite_note-": 7498,
      "▁\"Cambridge": 7499,
      "ott": 7500,
      "harkhand": 7501,
      "▁before": 7502,
      "▁[Cambridge": 7503,
      "▁dem": 7504,
      "35.": 7505,
      "▁[↑](https://en.wikipedia.org/api/rest_v1/page/html/India#cite_ref-FOOTNOTEStein2010": 7506,
      "▁\"Special:BookSources/978-81": 7507,
      "](https://en.wikipedia.org/api/rest_v1/page/html/Special:BookSources/978-81": 7508,
      "ourbaki": 7509,
      "](https://en.wikipedia.org/api/rest_v1/page/html/British": 7510,
      "arden": 7511,
      "_subcontinent": 7512,
      "_Re": 7513,
      "ecu": 7514,
      "ports": 7515,
      "](https://en.wikipedia.org/api/rest_v1/page/html/Template:": 7516,
      "aking": 7517,
      "▁range": 7518,
      "ambridge_University_Press": 7519,
      "_Union": 7520,
      "erves": 7521,
      "urasian": 7522,
      "aceutical": 7523,
      "▁2007](https://en.wikipedia.org/api/rest_v1/page/html/India#CITEREF": 7524,
      "▁village": 7525,
      "▁coast": 7526,
      "_dance": 7527,
      "▁ago": 7528,
      "_War": 7529,
      "ollingham": 7530,
      "ampion": 7531,
      "▁[India](https://en.wikipedia.org/api/rest_v1/page/html/India": 7532,
      "ritsch": 7533,
      "Pakistani": 7534,
      "vatsyayan-lord-4": 7535,
      "vatsyayan-lord_43": 7536,
      "cheduled": 7537,
      "▁including": 7538,
      "owever,": 7539,
      "onial": 7540,
      "harmaceutical": 7541,
      "▁influen": 7542,
      "undamental": 7543,
      "▁Press](https://en.wikipedia.org/api/rest_v1/page/html/Cambridge_University_Press": 7544,
      "culpture": 7545,
      "inancial": 7546,
      "406]](https://en.wikipedia.org/api/rest_v1/page/html/India#cite_note-vatsyayan-lord-4": 7547,
      "age.": 7548,
      "▁1962": 7549,
      "▁2022.": 7550,
      "Library_of_C": 7551,
      "business/india-": 7552,
      "cia.gov/the-world-factbook": 7553,
      "reedom": 7554,
      "Library_of_Congress": 7555,
      "430": 7556,
      "Flag": 7557,
      "LD": 7558,
      "bate": 7559,
      "the\\_": 7560,
      "former": 7561,
      "ore,": 7562,
      "censusindia": 7563,
      "▁lists": 7564,
      "loc.gov/": 7565,
      "\"](https://web.archive.org/web/20": 7566,
      "Chennai": 7567,
      "Template": 7568,
      "_వి": 7569,
      "_కాశ్మీ": 7570,
      "c/": 7571,
      "ంస్కృ": 7572,
      "ఉత్తరా": 7573,
      "ఖో": 7574,
      "ఘాలయ": 7575,
      "చ్": 7576,
      "టై": 7577,
      "టర్": 7578,
      "డమ్": 7579,
      "డఖ్": 7580,
      "ణే": 7581,
      "ణంగా": 7582,
      "తే": 7583,
      "తెల": 7584,
      "దరంగ": 7585,
      "నో": 7586,
      "నంద": 7587,
      "బర్": 7588,
      "బార్": 7589,
      "యె": 7590,
      "రె": 7591,
      "లడఖ్": 7592,
      "ళా": 7593,
      "ళి": 7594,
      "శు": 7595,
      "హించ": 7596,
      "ుకు": 7597,
      "ెన్న": 7598,
      "ెట్రో": 7599,
      "ేతి": 7600,
      "ేఘాలయ": 7601,
      "ైనిక": 7602,
      "ొగలు": 7603,
      "ోళ": 7604,
      "‌కా": 7605,
      "‌మహ": 7606,
      "▁ఐ": 7607,
      "▁ఖ": 7608,
      "▁–సా.శ.": 7609,
      "▁భారతీయ": 7610,
      "▁[రాష్ట్ర": 7611,
      "▁[జన": 7612,
      "▁[గో": 7613,
      "▁\"పా": 7614,
      "▁\"జన": 7615,
      "▁\"గో": 7616,
      "▁\"మూస:": 7617,
      "](https://te.wikipedia.org/api/rest_v1/page/html/B": 7618,
      "](https://te.wikipedia.org/api/rest_v1/page/html/G": 7619,
      "](https://te.wikipedia.org/api/rest_v1/page/html/భారతదేశ": 7620,
      "](https://te.wikipedia.org/api/rest_v1/page/html/గో": 7621,
      "](https://te.wikipedia.org/api/rest_v1/page/html/మూస:": 7622,
      "ారస్వ": 7623,
      "ాలె": 7624,
      "స్ట": 7625,
      "స్వాతంత్ర్య": 7626,
      "▁పర": 7627,
      "▁పండు": 7628,
      "lock": 7629,
      "FOOTNOTENational_Informatics_Centre2005": 7630,
      "978-3": 7631,
      "రాన్": 7632,
      "రాస్య": 7633,
      "urry": 7634,
      "▁కే": 7635,
      "▁కోర్": 7636,
      "త్రిక": 7637,
      "క్స్": 7638,
      "క్కి": 7639,
      "▁వె": 7640,
      "▁వంట": 7641,
      "ంగో": 7642,
      "▁సముద్ర": 7643,
      "▁సూచ": 7644,
      "▁సౌక": 7645,
      "్రామ": 7646,
      "_in_M": 7647,
      "ండా": 7648,
      "ండీ": 7649,
      "ండ్య": 7650,
      "-459": 7651,
      "తాజ్": 7652,
      "నాథ": 7653,
      "త్వా": 7654,
      "nder": 7655,
      "▁(సా.శ.16": 7656,
      "ులు?action=edit&redlink=1": 7657,
      "▁అభి": 7658,
      "▁ప్రజా": 7659,
      "తం?action=edit&redlink=1": 7660,
      "పూర్": 7661,
      "ప్రిల్": 7662,
      "▁ఉంట": 7663,
      "▁ఉత్తర": 7664,
      "▁సామా": 7665,
      "వాద": 7666,
      "విధ": 7667,
      "ార్ఖండ్": 7668,
      "క్షరాస్య": 7669,
      "_Mahal": 7670,
      "పుర": 7671,
      "▁నడి": 7672,
      "_Goa": 7673,
      "▁ఇండియా": 7674,
      "గుప్": 7675,
      "డుకు": 7676,
      "నేషియా": 7677,
      "ంగాణ": 7678,
      "▁జన": 7679,
      "లియా": 7680,
      "▁ప్రాచ": 7681,
      "▁విభ": 7682,
      "▁వివిధ": 7683,
      "▁సంఘ": 7684,
      "ండిచ్చేరి": 7685,
      "amese": 7686,
      "arch_2004": 7687,
      "జీరియా": 7688,
      "ంకేతి": 7689,
      "వేలీ": 7690,
      "–సా.శ.పూ.3": 7691,
      "బియా": 7692,
      "డామన్": 7693,
      "▁రాష్ట్రపతి": 7694,
      "త్రిపుర": 7695,
      "_కాల": 7696,
      "▁రైల్వే": 7697,
      "య్యూ": 7698,
      "త్తీస్": 7699,
      "▁ప్రదేశ్](https://te.wikipedia.org/api/rest_v1/page/html/": 7700,
      "నాగాలా": 7701,
      "▁\"జమ్మూ": 7702,
      "▁పాకిస్తాన్": 7703,
      "కోవ": 7704,
      "కోబార్": 7705,
      "](https://te.wikipedia.org/api/rest_v1/page/html/జమ్మూ": 7706,
      "ల్లవ": 7707,
      "రేబియా": 7708,
      "టాక్": 7709,
      "▁మాత్ర": 7710,
      "్రిటిష్": 7711,
      "%E0%B0%": 7712,
      "వెను": 7713,
      "ూచి": 7714,
      "భారతదేశ_రాష్ట్రాలు,_కేంద్రపాలిత_ప్రాంత": 7715,
      "ప్పటిక": 7716,
      "లేషియా": 7717,
      "▁మొదల": 7718,
      "ద్యు": 7719,
      "▁చిత్ర": 7720,
      "ద్వీప్": 7721,
      "▁ఉపఖండ": 7722,
      "▁దేశంలోని": 7723,
      "▁కాంగ్రెసు": 7724,
      "ఆగష్టు": 7725,
      "లక్షద్వీప్": 7726,
      "హాయం:": 7727,
      "ీకరణ": 7728,
      "ోల్‌కా": 7729,
      "మిజోరా": 7730,
      "Taj_Mahal": 7731,
      "ర్యానా": 7732,
      "▁[ఢిల్లీ](https://te.wikipedia.org/api/rest_v1/page/html/ఢిల్లీ": 7733,
      "టిబెట్": 7734,
      "మెరికా": 7735,
      "alayalam": 7736,
      "బడ్డీ": 7737,
      "ేరళ": 7738,
      "్రైస్త": 7739,
      "ండమాన్": 7740,
      "ెలవుదిన": 7741,
      "తెలంగాణ": 7742,
      "ెన్నై": 7743,
      "‌మహల్": 7744,
      "_in_March_2004": 7745,
      "తాజ్‌మహల్": 7746,
      "క్షరాస్యత": 7747,
      "నాగాలాండ్": 7748,
      "](https://te.wikipedia.org/api/rest_v1/page/html/జమ్మూ_కాశ్మీ": 7749,
      "ోల్‌కాతా": 7750,
      "Taj_Mahal_in_March_2004": 7751,
      "lc": 7752,
      "compar": 7753,
      "s/g": 7754,
      "-report": 7755,
      "▁<http://": 7756,
      "ognised": 7757,
      "comparison": 7758,
      "%3": 7759,
      "34)": 7760,
      "72": 7761,
      "AD": 7762,
      "_राज्य": 7763,
      "_एशिया": 7764,
      "ंतर": 7765,
      "ईल": 7766,
      "ख्य": 7767,
      "घर": 7768,
      "चें": 7769,
      "जें": 7770,
      "तम": 7771,
      "तुल": 7772,
      "थियार": 7773,
      "फा": 7774,
      "बा": 7775,
      "मर": 7776,
      "मार": 7777,
      "वेश": 7778,
      "वैद": 7779,
      "शन": 7780,
      "िबंध": 7781,
      "ृष": 7782,
      "ृष्ण": 7783,
      "्लेट": 7784,
      "▁,": 7785,
      "▁५": 7786,
      "▁ला": 7787,
      "▁[प्र": 7788,
      "▁[तमिल": 7789,
      "▁[गुजरात": 7790,
      "▁\"ड": 7791,
      "▁\"ह": 7792,
      "ारो": 7793,
      "ारम्भ": 7794,
      "](https://hi.wikipedia.org/api/rest_v1/page/html/ग": 7795,
      "](https://hi.wikipedia.org/api/rest_v1/page/html/द": 7796,
      "▁कम": 7797,
      "▁किन": 7798,
      "्रह": 7799,
      "▁सह": 7800,
      "▁स्तर": 7801,
      "▁सभ्यता": 7802,
      "library": 7803,
      "\\_क": 7804,
      "▁पू": 7805,
      "र्ट": 7806,
      "्त्र": 7807,
      "▁अमेर": 7808,
      "▁अलग": 7809,
      "▁अर्थव्यवस्था": 7810,
      "वियत": 7811,
      "▁जिन": 7812,
      "ाले": 7813,
      "ालैंड": 7814,
      "▁देव": 7815,
      "▁दोन": 7816,
      "न्ध": 7817,
      "▁बंगाल": 7818,
      "▁बड़े": 7819,
      "▁प्रधानमंत्री": 7820,
      "भाजन": 7821,
      "▁सेवा": 7822,
      "▁काम": 7823,
      "▁व्यवस्था": 7824,
      "▁आक": 7825,
      "▁आद": 7826,
      "▁परि": 7827,
      "▁शा": 7828,
      "▁संस्थान": 7829,
      "](https://hi.wikipedia.org/api/rest_v1/page/html/भारत#cite_ref-pib": 7830,
      "](https://hi.wikipedia.org/api/rest_v1/page/html/भारत#cite_ref-langoff": 7831,
      "]](https://hi.wikipedia.org/api/rest_v1/page/html/भारत#cite_note-langoff-1": 7832,
      "ियन": 7833,
      "ी](https://hi.wikipedia.org/api/rest_v1/page/html/म": 7834,
      "संबर": 7835,
      "सां": 7836,
      "-7mar": 7837,
      "त्ति": 7838,
      "▁रक्षा": 7839,
      "जापान": 7840,
      "▁\"मध्य": 7841,
      "हाँ": 7842,
      "ोली": 7843,
      "](https://hi.wikipedia.org/api/rest_v1/page/html/मध्य": 7844,
      "द्यालय": 7845,
      "120]](https://hi.wikipedia.org/api/rest_v1/page/html/भारत#cite_note-langoff-1": 7846,
      "गुप्त": 7847,
      "▁CITEREFStein1998": 7848,
      "▁CITEREFSingh2009": 7849,
      "](https://hi.wikipedia.org/api/rest_v1/page/html/पंजाब": 7850,
      "](https://hi.wikipedia.org/api/rest_v1/page/html/पश्चिम": 7851,
      "Stein1998),": 7852,
      "Singh2009),": 7853,
      "ों_की_सूची?action=edit&redlink=1": 7854,
      "▁निभा": 7855,
      "](https://hi.wikipedia.org/api/rest_v1/page/html/भारत#CITEREFStein1998),": 7856,
      "](https://hi.wikipedia.org/api/rest_v1/page/html/भारत#CITEREFSingh2009),": 7857,
      "KulkeRothermund200": 7858,
      "▁2009](https://hi.wikipedia.org/api/rest_v1/page/html/भारत#CITEREFSingh2009),": 7859,
      "▁थे": 7860,
      "▁पाकिस्तान": 7861,
      "▁उपमहाद्वीप": 7862,
      "कालीन": 7863,
      "▁मंदिर\")": 7864,
      "नागालैंड": 7865,
      "धीरे": 7866,
      "रोहर": 7867,
      "▁वर्षों": 7868,
      "▁देख": 7869,
      "▁पार्टी": 7870,
      "ांति": 7871,
      "▁सिनेमा\"),": 7872,
      "▁1998](https://hi.wikipedia.org/api/rest_v1/page/html/भारत#CITEREFStein1998),": 7873,
      "ांधी": 7874,
      "▁दृश्य": 7875,
      "▁होती": 7876,
      "▁भूमिका": 7877,
      "▁दिसंबर": 7878,
      "प्राचीन": 7879,
      "हित्य": 7880,
      "ेघालय": 7881,
      "▁\"पाकिस्तान\")": 7882,
      "▁नेतृत्व": 7883,
      "रुणाचल": 7884,
      "चेंज": 7885,
      "वैदिक": 7886,
      "िबंधीय": 7887,
      "](https://hi.wikipedia.org/api/rest_v1/page/html/भारत#cite_ref-langoff_128": 7888,
      "-7mar2011": 7889,
      "120]](https://hi.wikipedia.org/api/rest_v1/page/html/भारत#cite_note-langoff-128)": 7890,
      "Allchin": 7891,
      "NG": 7892,
      "Petraglia": 7893,
      "▁Michael": 7894,
      "india.com/": 7895,
      "_Monetary": 7896,
      "_par": 7897,
      "_power": 7898,
      "ternet": 7899,
      "PetragliaAllchin": 7900,
      "_Monetary_Fund": 7901,
      "/t": 7902,
      "_to": 7903,
      "jpg": 7904,
      "-03": 7905,
      "\"),[": 7906,
      "▁Machine": 7907,
      "22)": 7908,
      "▁Health": 7909,
      "1991": 7910,
      "%2C_India": 7911,
      "▁Chinese": 7912,
      ".**": 7913,
      "1.\n": 7914,
      "Mumbai": 7915,
      "orse": 7916,
      "202": 7917,
      "urren": 7918,
      "▁growing": 7919,
      "▁[*P": 7920,
      "entral_In": 7921,
      "▁Studies": 7922,
      "_Organisation": 7923,
      "urrency": 7924,
      "*](http://": 7925,
      "-n": 7926,
      "5/5": 7927,
      "96": 7928,
      "TO": 7929,
      "gad": 7930,
      "▁25.": 7931,
      "_Ar": 7932,
      "_Air": 7933,
      "visions": 7934,
      "▁2020.": 7935,
      "sites/": 7936,
      "...]": 7937,
      "Home_Affairs": 7938,
      ",PPP": 7939,
      "66": 7940,
      "Raj": 7941,
      "zon": 7942,
      "zer": 7943,
      "▁Li": 7944,
      "-1\").\n": 7945,
      "▁Ad": 7946,
      "ets": 7947,
      "edieval": 7948,
      "▁Minister": 7949,
      "23%": 7950,
      "bert": 7951,
      "uture": 7952,
      "▁\"Sanskrit": 7953,
      "▁contin": 7954,
      "ody": 7955,
      "articles/": 7956,
      "▁Religion": 7957,
      "dustrial": 7958,
      "stitutional": 7959,
      "418": 7960,
      "Front": 7961,
      "tation": 7962,
      "](https://id": 7963,
      "**,": 7964,
      ")\"),": 7965,
      "_con": 7966,
      "equality": 7967,
      "ge.org/": 7968,
      "▁[n": 7969,
      "alt": 7970,
      "▁can": 7971,
      "▁sourc": 7972,
      "forge.org/": 7973,
      "▁[SAARC": 7974,
      "_and_union_territ": 7975,
      "▁79.": 7976,
      "oolforge.org/": 7977,
      "ustralia": 7978,
      "▁widely": 7979,
      ".toolforge.org/": 7980,
      "_and_union_territories": 7981,
      "58)": 7982,
      "official": 7983,
      "▁26.": 7984,
      "▁19.": 7985,
      "opland": 7986,
      "▁2007.": 7987,
      "▁names": 7988,
      "▁\"Coordinated": 7989,
      "otto": 7990,
      "ogni": 7991,
      "_Universal": 7992,
      "Hindustan": 7993,
      "oordinated_Universal": 7994,
      "▁Time\")+": 7995,
      "▁Index\")": 7996,
      "oordinated_Universal_Time": 7997,
      ".und": 7998,
      "5]](https://en.wikipedia.org/api/rest_v1/page/html/India#cite_note-": 7999,
      "9]](https://en.wikipedia.org/api/rest_v1/page/html/India#cite_note-FOOTNOTE": 8000,
      "Collingham": 8001,
      "S$": 8002,
      "Tarlo": 8003,
      "ais": 8004,
      "caste": 8005,
      "der": 8006,
      "ghe": 8007,
      "iger": 8008,
      "ivilisation": 8009,
      "mill": 8010,
      "odia": 8011,
      "p.org/": 8012,
      "rune": 8013,
      "tate": 8014,
      "y,": 8015,
      "yth": 8016,
      "yer": 8017,
      "▁gen": 8018,
      "▁eng": 8019,
      "▁here": 8020,
      "▁kingdom": 8021,
      "dish": 8022,
      "ged": 8023,
      "aph": 8024,
      "apore": 8025,
      "▁[Y": 8026,
      "ino-": 8027,
      "tile": 8028,
      "eri": 8029,
      "erved": 8030,
      "arl": 8031,
      "omo": 8032,
      "sist": 8033,
      "acmill": 8034,
      "▁inte": 8035,
      "atna": 8036,
      "ataraj": 8037,
      "▁poli": 8038,
      "etry": 8039,
      "isc": 8040,
      "ingapore": 8041,
      "▁school": 8042,
      "▁Sabha": 8043,
      "well": 8044,
      "▁fe": 8045,
      "▁fol": 8046,
      "▁four": 8047,
      "ed,": 8048,
      "▁tal": 8049,
      "fir": 8050,
      "▁man": 8051,
      "▁main": 8052,
      "ratic": 8053,
      "978-9": 8054,
      "▁Temple": 8055,
      "▁Routledge": 8056,
      "urk": 8057,
      "▁would": 8058,
      "▁B.": 8059,
      "▁*India": 8060,
      "University": 8061,
      "▁Greek": 8062,
      "asthan": 8063,
      "▁N.": 8064,
      "▁Nicobar": 8065,
      "▁2025.": 8066,
      "286": 8067,
      "ngineering": 8068,
      "▁relations": 8069,
      "▁Force": 8070,
      ".[[4": 8071,
      "ell": 8072,
      "_A7C": 8073,
      "▁third": 8074,
      "hailand": 8075,
      "_Pradesh": 8076,
      "s](https://en.wikipedia.org/api/rest_v1/page/html/B": 8077,
      "▁Organization": 8078,
      "▁\"Chin": 8079,
      "](https://books.google.com/books?id=3TRtDwAAQBAJ&pg=PA": 8080,
      "▁deci": 8081,
      "a](https://en.wikipedia.org/api/rest_v1/page/html/A": 8082,
      "angered": 8083,
      "▁now": 8084,
      "▁areas": 8085,
      "▁\"East": 8086,
      "33-7": 8087,
      "_River": 8088,
      "ameez": 8089,
      "ambodia": 8090,
      "iley": 8091,
      "eccan": 8092,
      "▁Ved": 8093,
      "▁like": 8094,
      "▁[![The": 8095,
      "ogri": 8096,
      "rence": 8097,
      "▁led": 8098,
      "▁lead": 8099,
      "DwAAQBAJ": 8100,
      "alaysia": 8101,
      "indhi": 8102,
      "article/": 8103,
      "ukesh": 8104,
      "athematics": 8105,
      "▁plain": 8106,
      "▁Pradesh\")": 8107,
      "▁[Archived](https://web.archive.org/web/20210": 8108,
      "▁agriculture": 8109,
      "rishna": 8110,
      "–123": 8111,
      "▁subcontinent\")": 8112,
      "▁These": 8113,
      "▁species": 8114,
      "▁rock": 8115,
      "▁contrib": 8116,
      "chedule": 8117,
      "struction": 8118,
      "ominion": 8119,
      "▁majority": 8120,
      "Spear199024": 8121,
      "hdr.und": 8122,
      "▁occup": 8123,
      "Sharma2007": 8124,
      "emocracy": 8125,
      "elangana": 8126,
      "lurton1993": 8127,
      "▁employed": 8128,
      "▁Minorities,": 8129,
      "razil": 8130,
      "_industry_in_India": 8131,
      "lothing": 8132,
      "name=": 8133,
      "IFT": 8134,
      "olnar": 8135,
      "Tarlo1996": 8136,
      "runei": 8137,
      "ino-Indian": 8138,
      "acmillan": 8139,
      "hdr.undp.org/": 8140,
      "g)": 8141,
      "▁116": 8142,
      "astest": 8143,
      "▁white": 8144,
      "india.gov.in_3": 8145,
      "a/a": 8146,
      "izo": 8147,
      "Po": 8148,
      "▁versi": 8149,
      "direct": 8150,
      "\\_Wiki": 8151,
      "▁Out": 8152,
      "imf.org/": 8153,
      "▁version": 8154,
      "-li": 8155,
      "0/0": 8156,
      "68.": 8157,
      "_term": 8158,
      "▁40": 8159,
      "him": 8160,
      "arsh": 8161,
      "ries/": 8162,
      "amy": 8163,
      "266": 8164,
      "ountries/": 8165,
      "▁Urdu": 8166,
      "den": 8167,
      "▁web": 8168,
      "links\n": 8169,
      "▁Rec": 8170,
      "29.": 8171,
      "_Programme": 8172,
      "data.worldbank.org/indicator/S": 8173,
      "7-8": 8174,
      "ES": 8175,
      "1857": 8176,
      "_are": 8177,
      "ather": 8178,
      "▁Asher": 8179,
      "▁Before": 8180,
      "-345": 8181,
      "hag": 8182,
      "▁originally": 8183,
      "▁[Hindi": 8184,
      "times.indiatimes.com/": 8185,
      "▁[Wolpert": 8186,
      "business-": 8187,
      "▁Asher,": 8188,
      "-se": 8189,
      "09": 8190,
      "Jha": 8191,
      "onk": 8192,
      "asht": 8193,
      "▁Policy": 8194,
      "1):": 8195,
      "Date": 8196,
      "KI": 8197,
      "enter": 8198,
      "\\_in": 8199,
      "▁mismatch": 8200,
      "235": 8201,
      "168": 8202,
      "source": 8203,
      "telligence_Agency": 8204,
      "2015/0": 8205,
      "entral_Intelligence_Agency": 8206,
      "-II": 8207,
      "Constituent": 8208,
      "Un": 8209,
      "अरब": 8210,
      "इन": 8211,
      "ईद": 8212,
      "ऍथ": 8213,
      "ऑक्सफोर्ड": 8214,
      "कणी": 8215,
      "ख़": 8216,
      "गध": 8217,
      "जल": 8218,
      "जपा": 8219,
      "जपुरी": 8220,
      "जिस्ट": 8221,
      "ताल": 8222,
      "थम": 8223,
      "थल": 8224,
      "दल": 8225,
      "दान": 8226,
      "नोल": 8227,
      "न्तर": 8228,
      "फ्रां": 8229,
      "बी": 8230,
      "बू": 8231,
      "बार": 8232,
      "मत": 8233,
      "मृत": 8234,
      "यपुर": 8235,
      "रस": 8236,
      "ल्ल": 8237,
      "शत": 8238,
      "शोक": 8239,
      "हम": 8240,
      "हें": 8241,
      "ाक": 8242,
      "ुरा": 8243,
      "ुम्ब": 8244,
      "ूबर": 8245,
      "ेक": 8246,
      "ॉग": 8247,
      "५७": 8248,
      "▁रा": 8249,
      "▁ना": 8250,
      "▁[श": 8251,
      "▁[राज्य": 8252,
      "▁\"साँच": 8253,
      "▁\"साँचा:": 8254,
      "](https://hi.wikipedia.org/api/rest_v1/page/html/हिन्द": 8255,
      "](https://hi.wikipedia.org/api/rest_v1/page/html/साँच": 8256,
      "](https://hi.wikipedia.org/api/rest_v1/page/html/साँचा:": 8257,
      "्रार": 8258,
      "▁सूच": 8259,
      "▁सीमा": 8260,
      "▁मन्दिर": 8261,
      "्यूरो": 8262,
      "रात": 8263,
      "▁पड़": 8264,
      "▁प्लेट": 8265,
      "ानगर": 8266,
      "▁हाला": 8267,
      "▁हथियार": 8268,
      "याधी": 8269,
      "िकी": 8270,
      "ोंकणी": 8271,
      "▁ज़": 8272,
      "ालर": 8273,
      "न्स": 8274,
      "▁बार": 8275,
      "▁बने": 8276,
      "▁बड़ा": 8277,
      "▁प्रस": 8278,
      "भाष": 8279,
      "▁नौसेना": 8280,
      "_सा": 8281,
      "्टॉक": 8282,
      "imated": 8283,
      "▁वृद्ध": 8284,
      "क्षण": 8285,
      "क्षद्वीप": 8286,
      "▁आन्द": 8287,
      "तिब्बत": 8288,
      "थाईल": 8289,
      "]](https://hi.wikipedia.org/api/rest_v1/page/html/भारत#cite_note-10": 8290,
      "री](https://hi.wikipedia.org/api/rest_v1/page/html/": 8291,
      "▁गठ": 8292,
      "▁[महाराष्ट्र": 8293,
      "कांक": 8294,
      "a_1": 8295,
      "ियान": 8296,
      "हिमालय": 8297,
      "ंडमान": 8298,
      "398": 8299,
      "▁लिया": 8300,
      "▁सागर": 8301,
      "▁\"महाराष्ट्र": 8302,
      "▁विज्ञान": 8303,
      "हाब": 8304,
      "परेशन": 8305,
      "▁करना": 8306,
      "▁करता": 8307,
      "ंग्रेज": 8308,
      "मीरात": 8309,
      "](https://hi.wikipedia.org/api/rest_v1/page/html/महाराष्ट्र": 8310,
      "▁[2](https://hi.wikipedia.org/api/rest_v1/page/html/भारत#cite_ref-FOOTNOTE": 8311,
      "▁[1](https://hi.wikipedia.org/api/rest_v1/page/html/भारत#cite_ref-FOOTNOTE": 8312,
      "▁चार": 8313,
      "राष्ट्रीय_स": 8314,
      "हारजिस्ट": 8315,
      "ा_वार": 8316,
      "िवस": 8317,
      "▁वर्षा": 8318,
      "_भारतीय_": 8319,
      "▁घरेलू": 8320,
      "समूह": 8321,
      "](https://hi.wikipedia.org/api/rest_v1/page/html/पूर्व": 8322,
      "▁2007\n": 8323,
      "ष्ठ": 8324,
      "न्नड़": 8325,
      "▁भाषा\")[[": 8326,
      "आईएस": 8327,
      "▁था,": 8328,
      "श्मीरी": 8329,
      "दाख": 8330,
      "ेर-": 8331,
      "▁शासित": 8332,
      "ंपन": 8333,
      "ंपरा": 8334,
      "▁[↑](https://hi.wikipedia.org/api/rest_v1/page/html/भारत#cite_ref-10": 8335,
      "त्पत्ति": 8336,
      "pib.nic.in/": 8337,
      "लिंग": 8338,
      "▁अपने": 8339,
      "ार्कट": 8340,
      "▁तटीय": 8341,
      "-language\\_text": 8342,
      "भूटान": 8343,
      "जयपुर": 8344,
      "जयनगर": 8345,
      "िज़ोर": 8346,
      "णिपुर": 8347,
      "णिपुरी": 8348,
      "लोकसभा": 8349,
      "शासित_प्रदेश": 8350,
      "▁सुरक्षा": 8351,
      "्रांति": 8352,
      "पातकाल": 8353,
      "_न्या": 8354,
      "धिराज्य": 8355,
      "▁जलवायु": 8356,
      "▁घाटी": 8357,
      "▁शुरू": 8358,
      "▁लगभग": 8359,
      "ूरोप": 8360,
      "default": 8361,
      "भोजपुरी": 8362,
      "▁वार्ता:": 8363,
      "स्लाम": 8364,
      "▁सदस": 8365,
      "▁राजनीतिक": 8366,
      "▁[पंजाब](https://hi.wikipedia.org/api/rest_v1/page/html/पंजाब": 8367,
      "_राजवंश": 8368,
      "खनऊ": 8369,
      "लयालम": 8370,
      "हरियाणा": 8371,
      "जेंस": 8372,
      "तुल्य": 8373,
      "फाएं": 8374,
      "ृषि": 8375,
      "▁दोनों": 8376,
      "▁निभाई": 8377,
      "ऍथनोल": 8378,
      "ुम्बई": 8379,
      "▁\"साँचा": 8380,
      "](https://hi.wikipedia.org/api/rest_v1/page/html/साँचा_वार": 8381,
      "याधीश": 8382,
      "▁वृद्धि": 8383,
      "▁[महाराष्ट्र](https://hi.wikipedia.org/api/rest_v1/page/html/महाराष्ट्र": 8384,
      "▁\"महाराष्ट्र\")": 8385,
      "हारजिस्ट्रार": 8386,
      "ार्कटिका": 8387,
      "ऍथनोलॉग": 8388,
      "](https://hi.wikipedia.org/api/rest_v1/page/html/साँचा_वार्ता:": 8389,
      "DD": 8390,
      "▁Day": 8391,
      "132": 8392,
      "▁Asia:": 8393,
      "▁Short": 8394,
      "▁[*An": 8395,
      "itzel": 8396,
      "-H": 8397,
      "-India": 8398,
      "-ex": 8399,
      "0-0)": 8400,
      "226": 8401,
      "_2011": 8402,
      "aci": 8403,
      "ix": 8404,
      "mage": 8405,
      "rum": 8406,
      "▁7.": 8407,
      "aly": 8408,
      "aranth": 8409,
      "tions": 8410,
      "2013": 8411,
      "▁pan": 8412,
      "▁Court": 8413,
      "-138": 8414,
      "▁Age": 8415,
      "etwork": 8416,
      "ices": 8417,
      "▁men": 8418,
      "▁Te": 8419,
      "ilbert": 8420,
      "▁Economy": 8421,
      "▁Hindus": 8422,
      "-4)": 8423,
      "ablish": 8424,
      "▁1999": 8425,
      "ctorate": 8426,
      "Literacy": 8427,
      "imachal": 8428,
      "37.": 8429,
      "853": 8430,
      "IAF": 8431,
      "▁[\"Gini": 8432,
      "_77": 8433,
      "mod": 8434,
      "oat": 8435,
      "po": 8436,
      "soon": 8437,
      "▁ob": 8438,
      "index": 8439,
      "▁(a)": 8440,
      "▁based": 8441,
      "its": 8442,
      "▁Gujarat": 8443,
      "monsoon": 8444,
      ")[[3": 8445,
      "_Times": 8446,
      "▁(b)": 8447,
      "YS": 8448,
      "went": 8449,
      "▁62": 8450,
      "/pl": 8451,
      "▁24.": 8452,
      "orities/": 8453,
      "/country": 8454,
      "-coefficient": 8455,
      "/field": 8456,
      "▁Environmental": 8457,
      "hattisgarh": 8458,
      "-[": 8459,
      "/)": 8460,
      "1]](https://en.wikipedia.org/api/rest_v1/page/html/India#cite_note-": 8461,
      "4121": 8462,
      "5-3": 8463,
      "Bengal": 8464,
      "Countries": 8465,
      "Ex": 8466,
      "Wright": 8467,
      "_18": 8468,
      "codi": 8469,
      "ij": 8470,
      "ield": 8471,
      "mall": 8472,
      "ocal": 8473,
      "rban": 8474,
      "u,": 8475,
      "uries": 8476,
      "–19": 8477,
      "▁ve": 8478,
      "▁78": 8479,
      "▁known": 8480,
      "reen": 8481,
      "orb": 8482,
      "orm": 8483,
      "orpor": 8484,
      "appe": 8485,
      "▁\"Special:EditPage/Template:": 8486,
      "enj": 8487,
      "alace": 8488,
      "](https://en.wikipedia.org/api/rest_v1/page/html/Special:EditPage/Template:": 8489,
      "er-": 8490,
      "erm": 8491,
      "ardian": 8492,
      "▁(2007": 8493,
      "▁(India)": 8494,
      "anda": 8495,
      "riy": 8496,
      "rian": 8497,
      "ouch": 8498,
      "▁India\").[[": 8499,
      "acred": 8500,
      "▁indi": 8501,
      "▁independence": 8502,
      "ently": 8503,
      "-0\").\n": 8504,
      "▁prac": 8505,
      "▁cre": 8506,
      "▁cal": 8507,
      "lose": 8508,
      "▁buil": 8509,
      "itation": 8510,
      "rocodi": 8511,
      "▁Prin": 8512,
      "▁milk": 8513,
      "▁military": 8514,
      "▁millennium": 8515,
      "angam": 8516,
      "▁[↑](https://en.wikipedia.org/api/rest_v1/page/html/India#cite_": 8517,
      "rchitecture": 8518,
      "▁Trade": 8519,
      "](https://en.wikipedia.org/api/rest_v1/page/html/India#cite_ref-vatsyayan-lord_43": 8520,
      "olution": 8521,
      "olonial": 8522,
      "▁Dance": 8523,
      "igin": 8524,
      "igration": 8525,
      "lymp": 8526,
      "▁lon": 8527,
      "▁Emer": 8528,
      "▁[↑](https://en.wikipedia.org/api/rest_v1/page/html/India#cite_ref-3": 8529,
      "▁[↑](https://en.wikipedia.org/api/rest_v1/page/html/India#cite_ref-4": 8530,
      "beral": 8531,
      "-4\").\n": 8532,
      "sey": 8533,
      "▁Franci": 8534,
      "abh": 8535,
      "akers": 8536,
      "](https://en.wikipedia.org/api/rest_v1/page/html/India#CITEREFM": 8537,
      "_and_Development": 8538,
      "s](https://en.wikipedia.org/api/rest_v1/page/html/T": 8539,
      "40px-": 8540,
      "▁\"Climate": 8541,
      "▁become": 8542,
      "▁\"Ministry": 8543,
      "▁[Mughal": 8544,
      "▁\"Special:BookSources/978-0-521": 8545,
      "](https://en.wikipedia.org/api/rest_v1/page/html/Special:BookSources/978-0-521": 8546,
      "angetic": 8547,
      "_National": 8548,
      "_Games": 8549,
      "▁direct": 8550,
      "▁2011](https://en.wikipedia.org/api/rest_v1/page/html/India#CITEREF": 8551,
      "▁\"Template": 8552,
      "▁ancient": 8553,
      "▁\"En": 8554,
      "▁\"Delhi": 8555,
      "▁V.": 8556,
      "▁Vedic": 8557,
      "](https://en.wikipedia.org/api/rest_v1/page/html/Template_": 8558,
      "ock": 8559,
      "▁\"Routledge": 8560,
      "1,7": 8561,
      "▁[East": 8562,
      "](https://en.wikipedia.org/api/rest_v1/page/html/Delhi": 8563,
      "_music": 8564,
      "▁[Tamil": 8565,
      "▁[Re": 8566,
      "▁[Routledge": 8567,
      "▁2014](https://en.wikipedia.org/api/rest_v1/page/html/India#CITEREF": 8568,
      "▁[History": 8569,
      "](https://en.wikipedia.org/api/rest_v1/page/html/Routledge": 8570,
      "▁US$": 8571,
      "▁leg": 8572,
      "▁[Indo-": 8573,
      "▁(2017).": 8574,
      "ronom": 8575,
      "onstitution_of_India": 8576,
      "▁centuries": 8577,
      "▁regions": 8578,
      "▁[Fisher": 8579,
      "orests": 8580,
      "raditional": 8581,
      "▁[t](https://en.wikipedia.org/api/rest_v1/page/html/Template_": 8582,
      "ast_India": 8583,
      "hola": 8584,
      "▁[e](https://en.wikipedia.org/api/rest_v1/page/html/Special:EditPage/Template:": 8585,
      "▁[v](https://en.wikipedia.org/api/rest_v1/page/html/Template:": 8586,
      "Environment": 8587,
      "Fisher2018),": 8588,
      "▁Buddha": 8589,
      "▁upper": 8590,
      "volution": 8591,
      "a](https://en.wikipedia.org/api/rest_v1/page/html/China": 8592,
      "▁2018](https://en.wikipedia.org/api/rest_v1/page/html/India#CITEREFFisher2018),": 8593,
      "janta": 8594,
      "merican": 8595,
      "▁republic": 8596,
      "rotected": 8597,
      "▁Conservation": 8598,
      "ibetan": 8599,
      "▁appro": 8600,
      "forcement": 8601,
      "▁2025.\n": 8602,
      "▁India](https://en.wikipedia.org/api/rest_v1/page/html/Government_of_India": 8603,
      "▁[China](https://en.wikipedia.org/api/rest_v1/page/html/China": 8604,
      "▁1994](https://en.wikipedia.org/api/rest_v1/page/html/India#CITEREF": 8605,
      "lofker": 8606,
      "▁Games\")": 8607,
      "limate_": 8608,
      "▁democ": 8609,
      "▁engineering": 8610,
      "Wright2010": 8611,
      "▁(2007).": 8612,
      "▁\"Routledge\").": 8613,
      "▁[Routledge](https://en.wikipedia.org/api/rest_v1/page/html/Routledge": 8614,
      "▁[t](https://en.wikipedia.org/api/rest_v1/page/html/Template_tal": 8615,
      "/m": 8616,
      "/).": 8617,
      "▁line": 8618,
      "ing/": 8619,
      "comes": 8620,
      "_of_S": 8621,
      "263": 8622,
      "####": 8623,
      "135": 8624,
      "eft-": 8625,
      "34238": 8626,
      "▁'M": 8627,
      "▁Languages": 8628,
      "11934238": 8629,
      "d/d": 8630,
      "11934238p": 8631,
      "Atlas": 8632,
      "Emb": 8633,
      "°N": 8634,
      "°E﻿": 8635,
      "report": 8636,
      "html)\n": 8637,
      "_(orthographic_projection": 8638,
      "117": 8639,
      "_language?action=edit&redlink=1": 8640,
      "▁14.2%": 8641,
      "▁[\"Population": 8642,
      "Flag_of_India.svg": 8643,
      "▁79.8%": 8644,
      "_(orthographic_projection).": 8645,
      "-and-": 8646,
      "6)\n": 8647,
      "C)": 8648,
      "MD": 8649,
      "pact": 8650,
      "▁edi": 8651,
      "[[18": 8652,
      "igved": 8653,
      "_in_A": 8654,
      "-349": 8655,
      "15/": 8656,
      "_and_N": 8657,
      "_Ram": 8658,
      "world-": 8659,
      "▁notation": 8660,
      "ymn": 8661,
      "rajbhasha": 8662,
      "_time": 8663,
      "▁\".in": 8664,
      "▁written": 8665,
      "system": 8666,
      "_domain": 8667,
      "▁Recognised": 8668,
      "623": 8669,
      "82": 8670,
      "_అ": 8671,
      "_ఎ": 8672,
      "_ర": 8673,
      "_యు": 8674,
      "_రాజ": 8675,
      "_శాస్త్ర": 8676,
      "fun": 8677,
      "ఒలి": 8678,
      "కూ": 8679,
      "క్ర": 8680,
      "గే": 8681,
      "గ్ర": 8682,
[...]
